<unk>	0
<s>	0
</s>	0
▁	-2.84758
е	-3.64912
,	-3.65674
▁в	-3.82358
.	-3.89269
1	-3.91219
9	-4.06549
а	-4.06927
и	-4.12541
▁и	-4.42684
0	-4.47987
о	-4.54471
х	-4.61291
▁«	-4.69213
▁с	-4.70596
й	-4.77488
▁(	-4.77655
я	-4.79024
»	-4.82167
2	-4.83441
ы	-4.90487
▁на	-4.92031
6	-4.93271
-	-4.97099
у	-5.06859
)	-5.11435
ой	-5.11576
▁В	-5.11689
7	-5.23775
4	-5.25057
3	-5.26356
—	-5.33115
м	-5.34082
▁Гондураса	-5.35182
▁по	-5.3868
▁==	-5.38872
▁был	-5.48891
8	-5.53182
ом	-5.54181
ю	-5.54312
:	-5.5666
5	-5.58446
▁года	-5.64283
ая	-5.73531
ся	-5.76015
го	-5.76693
ь	-5.7791
ого	-5.78717
▁Сальвадора	-5.88364
в	-5.89242
▁из	-5.90845
л	-5.95944
ли	-5.98958
▁к	-6.02028
ть	-6.08637
▁году	-6.09055
▁не	-6.1157
т	-6.1304
ых	-6.16398
▁Грант	-6.16575
ов	-6.1899
↑	-6.21642
с	-6.21931
▁К	-6.22351
).	-6.22512
▁за	-6.24963
ый	-6.26538
▁Гондурас	-6.27559
к	-6.31072
же	-6.32753
▁июля	-6.36213
▁от	-6.36558
▁г	-6.37378
ую	-6.38194
з	-6.38348
▁сборн	-6.44412
ей	-6.4461
де	-6.46087
▁сальвадорски	-6.47225
▁С	-6.51576
н	-6.5247
▁правительств	-6.53282
▁это	-6.53467
▁что	-6.53981
▁о	-6.54036
▁он	-6.55564
▁фильм	-6.55876
▁Сальвадор	-6.5666
ие	-6.62764
▁===	-6.63033
▁между	-6.63033
их	-6.63442
▁об	-6.65977
▁Д	-6.66667
▁территории	-6.68346
▁сво	-6.69122
▁стал	-6.69239
его	-6.74054
».	-6.76792
▁дл	-6.76931
п	-6.79052
/	-6.79734
да	-6.79841
В	-6.80221
▁П	-6.82532
▁а	-6.85166
▁так	-6.85962
▁июня	-6.86067
S	-6.86422
▁Сальвадором	-6.86542
▁место	-6.8704
сь	-6.8792
ла	-6.87954
д	-6.88505
или	-6.89074
n	-6.8985
▁со	-6.90522
ло	-6.92206
ем	-6.92343
▁кино	-6.92643
▁самолёт	-6.92651
англ	-6.92743
▁дву	-6.92804
ок	-6.93891
С	-6.93999
y	-6.94612
ль	-6.95774
как	-6.97794
▁войны	-6.99806
ев	-7.00013
но	-7.00027
▁границы	-7.00049
▁сальвадорцев	-7.0005
▁при	-7.00201
▁же	-7.03978
▁раз	-7.03979
ки	-7.04189
▁которы	-7.05655
ных	-7.05823
ка	-7.06392
▁после	-7.07304
;	-7.07486
▁чемпионат	-7.07491
▁п	-7.07832
▁мира	-7.07975
▁два	-7.0803
▁F	-7.08742
ий	-7.10406
▁A	-7.11711
ами	-7.11781
ми	-7.12565
▁тысяч	-7.15819
▁сил	-7.16087
▁у	-7.16103
▁фильмов	-7.16521
ри	-7.16572
▁I	-7.16648
Ca	-7.17063
ная	-7.17433
▁А	-7.18194
N	-7.18326
ск	-7.19464
ные	-7.20132
▁Гранта	-7.20573
o	-7.20972
ах	-7.21444
▁м	-7.21463
ись	-7.21684
▁И	-7.2198
d	-7.23699
ны	-7.24307
▁граждан	-7.24664
▁время	-7.2491
ен	-7.25005
ry	-7.25331
ст	-7.25765
▁но	-7.25867
s	-7.25904
▁Гондурасом	-7.26018
лся	-7.27051
▁T	-7.27236
М	-7.28714
▁до	-7.28956
u	-7.29108
▁C	-7.29778
▁По	-7.31699
▁сальвадорск	-7.319
▁те	-7.32691
ии	-7.32982
ась	-7.33862
c	-7.34213
ил	-7.34578
▁район	-7.3491
▁Кинтаниль	-7.34917
▁армии	-7.34926
▁странами	-7.3506
▁годов	-7.35066
▁роль	-7.35495
▁вы	-7.36125
▁пере	-7.36554
a	-7.39549
B	-7.39831
К	-7.39893
лись	-7.40077
▁Сан	-7.40148
лин	-7.40681
▁т	-7.42016
▁котор	-7.42253
▁одн	-7.42834
▁карьер	-7.4308
▁гондурасски	-7.44529
ет	-7.44918
▁На	-7.4535
▁КОНКАКАФ	-7.46021
▁США	-7.46021
▁Grant	-7.46032
of	-7.46036
▁нескольк	-7.46037
▁война	-7.46038
ам	-7.46042
▁север	-7.46044
▁страны	-7.46548
на	-7.47416
▁актёра	-7.47489
ra	-7.47526
ш	-7.48938
▁p	-7.49278
▁М	-7.49406
t	-7.49453
▁город	-7.49526
ило	-7.49746
▁во	-7.50251
ва	-7.51164
П	-7.5187
ал	-7.52012
▁работ	-7.5212
A	-7.52403
американск	-7.52877
ди	-7.5457
▁О	-7.567
▁конфликт	-7.56703
▁ре	-7.57556
б	-7.58205
▁Центрально	-7.58521
▁успех	-7.58521
▁После	-7.58534
▁без	-7.58545
▁футболу	-7.58656
реди	-7.5868
▁При	-7.58721
ые	-7.59557
▁de	-7.59783
▁продолжал	-7.60036
ной	-7.60293
he	-7.60444
▁все	-7.61007
те	-7.61321
ни	-7.61395
р	-7.61554
ров	-7.62598
▁том	-7.6344
та	-7.63983
▁част	-7.64353
▁актёр	-7.64578
рин	-7.66344
ения	-7.66926
▁ко	-7.66939
▁снял	-7.67447
ос	-7.67718
▁начал	-7.6849
чение	-7.68887
▁год	-7.69025
ёл	-7.69246
мя	-7.69563
▁одно	-7.70259
▁Э	-7.70595
ти	-7.70802
им	-7.71554
▁действи	-7.71876
▁Не	-7.72807
▁больш	-7.72807
▁боевы	-7.7282
ольк	-7.72823
▁военно	-7.72853
эн	-7.72864
▁состав	-7.72906
меч	-7.72933
▁участием	-7.73147
▁занял	-7.73312
▁получил	-7.73317
эри	-7.73389
▁того	-7.735
▁годы	-7.73629
▁под	-7.73727
▁гол	-7.74166
▁боле	-7.74359
▁картин	-7.744
ч	-7.74562
Он	-7.74695
ился	-7.74747
▁Ли	-7.75036
▁стране	-7.75262
▁гондурасск	-7.75359
ф	-7.75701
до	-7.75901
са	-7.76058
▁бо	-7.7609
it	-7.76119
▁актёрск	-7.76417
▁Г	-7.76796
ит	-7.77001
▁ход	-7.77676
ia	-7.77798
▁D	-7.77804
ного	-7.78427
▁ни	-7.79099
er	-7.81367
▁B	-7.81519
▁ден	-7.8175
ания	-7.82692
▁Р	-7.82901
Д	-7.83365
▁сам	-7.84333
▁войск	-7.84582
▁Гондурасе	-7.8522
по	-7.85663
ская	-7.86156
▁групп	-7.86517
ющих	-7.87132
ном	-7.87153
▁б	-7.87158
г	-7.87184
за	-7.87238
▁стран	-7.87429
▁войска	-7.87757
вать	-7.8826
жа	-7.89177
ым	-7.89384
смотр	-7.89471
▁критиков	-7.89474
▁период	-7.89474
▁человек	-7.89474
▁один	-7.89475
Оскар	-7.89475
▁финальн	-7.89476
▁романтическ	-7.8948
Футбольн	-7.89481
▁Pre	-7.89481
▁S	-7.89492
ss	-7.89597
▁забил	-7.89612
▁истории	-7.89799
бли	-7.8984
▁стороны	-7.89842
▁прекращени	-7.90286
▁матчах	-7.90381
.)	-7.90466
около	-7.90469
▁три	-7.90916
▁Го	-7.91062
▁Бр	-7.91066
▁преми	-7.91397
▁экономически	-7.91522
ыми	-7.91833
▁лет	-7.91902
ять	-7.91999
▁конфликта	-7.92004
не	-7.92007
▁которых	-7.9233
ког	-7.9249
▁км	-7.92972
ому	-7.9315
▁турнира	-7.93505
▁чере	-7.93512
▁д	-7.93814
ния	-7.95294
стория	-7.95988
ку	-7.96225
ены	-7.96543
▁рас	-7.96556
се	-7.96941
▁самы	-7.97031
▁бы	-7.97543
nt	-7.97886
▁вооружённы	-7.98163
ер	-7.99023
i	-7.99032
b	-7.9972
лен	-8.00373
▁земель	-8.01146
вал	-8.01392
ём	-8.02225
Золото	-8.02547
Т	-8.0255
У	-8.02904
▁начала	-8.02951
бор	-8.02977
D	-8.0318
ью	-8.03341
and	-8.03982
ля	-8.04679
▁турнир	-8.04764
▁ра	-8.04885
p	-8.04908
нг	-8.05205
ия	-8.05919
воздушн	-8.06147
роли	-8.06708
al	-8.07024
▁участи	-8.0732
ром	-8.07376
ке	-8.08285
ин	-8.0841
▁границ	-8.08714
пер	-8.09073
▁президент	-8.09393
or	-8.09412
▁Би	-8.09474
▁включ	-8.09474
▁Америки	-8.09474
▁Национальн	-8.09474
▁ОАГ	-8.09474
▁сентябр	-8.09474
▁спустя	-8.09474
▁успешн	-8.09474
▁январ	-8.09474
▁Фильм	-8.09474
▁проект	-8.09474
▁съём	-8.09474
▁Так	-8.09479
запад	-8.09484
▁различны	-8.09486
▁войне	-8.09496
▁отборочн	-8.09507
▁ответ	-8.0954
▁матча	-8.09556
ers	-8.09576
ошки	-8.09593
▁находи	-8.09641
▁земли	-8.09694
▁имел	-8.09735
▁команд	-8.09902
▁исполн	-8.09904
▁положени	-8.09911
жды	-8.09954
▁соглашени	-8.10026
▁P	-8.10159
▁Хосе	-8.103
▁котором	-8.10326
▁против	-8.10351
▁кр	-8.11185
ях	-8.11196
▁отношения	-8.11369
▁дом	-8.11563
▁Ст	-8.11571
▁Ф	-8.11582
el	-8.12086
▁явля	-8.12278
щего	-8.12375
▁Л	-8.12385
ут	-8.12572
тера	-8.12577
▁воздушно	-8.12914
▁пре	-8.13222
▁Ро	-8.13255
▁Кэ	-8.13433
ги	-8.13525
▁G	-8.13957
▁позици	-8.13997
▁следующи	-8.14557
▁U	-8.1476
шёл	-8.15003
me	-8.15337
сти	-8.15945
ор	-8.16013
▁фильма	-8.17136
ось	-8.17422
от	-8.17594
▁сыгра	-8.17709
g	-8.18009
фи	-8.19203
▁начало	-8.19457
ним	-8.199
али	-8.20186
▁сбит	-8.22362
ённы	-8.22454
гр	-8.22642
ыграл	-8.24275
нн	-8.24964
мер	-8.25029
▁про	-8.26087
ках	-8.26485
бы	-8.26586
ации	-8.26884
мен	-8.27041
ход	-8.27252
первы	-8.27308
ям	-8.27355
▁начали	-8.27387
▁американски	-8.2769
U	-8.28079
▁футбольны	-8.28339
▁н	-8.28345
ирован	-8.28377
аль	-8.28952
▁появ	-8.29017
лось	-8.29069
▁второ	-8.29347
ран	-8.30028
▁военны	-8.31343
la	-8.31379
▁отношени	-8.32125
▁ка	-8.32139
▁комеди	-8.32302
нимал	-8.32514
▁дв	-8.32872
▁спис	-8.33021
цы	-8.33131
ща	-8.33442
▁Т	-8.33593
том	-8.33922
ным	-8.34231
играл	-8.34262
on	-8.34305
питан	-8.34454
ако	-8.34464
▁En	-8.34474
▁четыр	-8.34474
▁Тегусигальп	-8.34474
▁ФИФА	-8.34474
▁Хепбёрн	-8.34474
▁ЦАОР	-8.34474
▁вылетевши	-8.34474
▁гаранти	-8.34474
▁договор	-8.34474
▁журнал	-8.34474
▁контракт	-8.34474
▁мелодрам	-8.34474
▁октябр	-8.34474
▁популярность	-8.34474
▁предложил	-8.34474
▁приграничны	-8.34474
▁собственност	-8.34474
▁Голливуд	-8.34474
▁Нуэва	-8.34474
▁вопрос	-8.34474
▁иностранны	-8.34474
▁истребителя	-8.34474
▁преимуществ	-8.34474
▁протест	-8.34474
▁половин	-8.34474
▁верну	-8.34474
▁развит	-8.34474
▁War	-8.34475
▁пользовал	-8.34475
▁результат	-8.34475
▁столиц	-8.34477
▁акцент	-8.34477
ham	-8.34477
▁дня	-8.34477
▁затем	-8.34478
▁должн	-8.34479
ходят	-8.34484
▁куб	-8.34485
for	-8.34492
▁дней	-8.34499
▁девушк	-8.34509
▁последне	-8.34524
▁размещен	-8.34532
es	-8.34562
честв	-8.34573
▁подписан	-8.34579
▁Pa	-8.34591
▁радио	-8.34661
вмест	-8.34729
истер	-8.34738
▁режиссёра	-8.34781
▁этапа	-8.34781
▁комедийн	-8.34785
▁убит	-8.34792
исп	-8.3486
▁номинаци	-8.34877
▁основн	-8.34888
тора	-8.34904
вший	-8.34904
▁воз	-8.34937
▁цел	-8.35025
▁дем	-8.35045
жи	-8.35057
ировал	-8.3517
▁прив	-8.35381
▁выступил	-8.35555
▁O	-8.35564
▁участвовал	-8.35589
▁театр	-8.35628
▁бу	-8.35718
▁Пушкина	-8.35857
Пой	-8.36027
▁драма	-8.36357
▁комедия	-8.36378
▁произошл	-8.36392
▁фильмах	-8.36429
▁девят	-8.36456
▁пока	-8.36459
ура	-8.36649
▁обеи	-8.37077
▁мир	-8.37099
l	-8.37464
uer	-8.37525
▁чем	-8.37758
▁участие	-8.37863
▁Ра	-8.37865
▁оста	-8.38569
амятник	-8.38611
ok	-8.38746
атр	-8.39285
▁группе	-8.39285
▁мног	-8.39358
iv	-8.39498
▁Ш	-8.39667
tan	-8.39733
оу	-8.39868
ле	-8.40471
вес	-8.40786
▁матче	-8.4087
тельно	-8.40959
▁футбольн	-8.41039
▁перво	-8.41184
ара	-8.41312
су	-8.41553
ar	-8.41817
▁карьере	-8.42
io	-8.42893
▁сер	-8.42918
▁У	-8.4358
ар	-8.45848
ведения	-8.46088
То	-8.46143
▁се	-8.46168
ья	-8.47117
▁внес	-8.49594
шн	-8.50278
ника	-8.50328
работ	-8.51425
вшего	-8.5144
кой	-8.52478
тери	-8.53463
ает	-8.53971
то	-8.54173
ты	-8.54761
си	-8.55364
вого	-8.55383
мм	-8.55397
енно	-8.5577
▁торгов	-8.55918
▁американск	-8.56018
лу	-8.56234
▁N	-8.57029
ента	-8.57082
▁дел	-8.57197
▁сальвадорским	-8.57318
▁матч	-8.57628
вый	-8.58057
нё	-8.58702
in	-8.59089
▁пол	-8.59134
ились	-8.59302
▁мест	-8.59522
▁Гр	-8.59645
ию	-8.60246
А	-8.60334
▁им	-8.60488
ник	-8.6056
сайт	-8.60914
Ш	-8.60998
ций	-8.61071
нтерн	-8.61511
про	-8.61649
Л	-8.61709
F	-8.61726
Ро	-8.61749
тек	-8.61865
Г	-8.61892
Сальвадор	-8.619
k	-8.62056
ость	-8.62076
▁пар	-8.62462
▁высоко	-8.62769
илась	-8.6311
при	-8.63178
жд	-8.63513
вар	-8.63712
бо	-8.63744
▁промышленн	-8.641
что	-8.64416
вши	-8.65264
́	-8.65495
▁Хичкок	-8.65619
стро	-8.65686
▁Пушкин	-8.65913
ё	-8.66304
▁Ч	-8.665
▁заявил	-8.66663
▁столкновени	-8.6684
ра	-8.67003
▁сторон	-8.67012
селения	-8.67037
ших	-8.67153
прав	-8.67243
ства	-8.6736
▁предста	-8.67366
род	-8.67623
равительств	-8.67712
ошла	-8.67753
хват	-8.67761
сона	-8.67784
щё	-8.67805
Альянс	-8.67807
▁Mar	-8.67807
▁Бел	-8.67807
ороткометражны	-8.67807
осударств	-8.67807
▁Soccer	-8.67807
▁Альфред	-8.67807
▁Конгресса	-8.67807
▁Мексик	-8.67807
▁ООН	-8.67807
▁Сидни	-8.67807
▁Ссылк	-8.67807
▁Чемпион	-8.67807
▁апреле	-8.67807
▁артиллери	-8.67807
▁батальон	-8.67807
▁беженцев	-8.67807
▁декабр	-8.67807
▁жертв	-8.67807
▁зрителей	-8.67807
▁испытывал	-8.67807
▁кинематографе	-8.67807
▁объявил	-8.67807
▁оконча	-8.67807
▁переоборудован	-8.67807
▁площад	-8.67807
▁подразделени	-8.67807
▁проблем	-8.67807
▁рейтинг	-8.67807
▁создан	-8.67807
▁сообщ	-8.67807
▁транспортны	-8.67807
▁третий	-8.67807
▁триллер	-8.67807
▁трупп	-8.67807
▁чрезвычайн	-8.67807
▁экономик	-8.67807
▁предложени	-8.67807
▁соответств	-8.67807
▁гвардии	-8.67807
▁поднял	-8.67807
▁соверш	-8.67807
▁причин	-8.67807
▁призёр	-8.67807
▁рынка	-8.67807
▁принял	-8.67808
▁месяц	-8.67808
▁Хам	-8.67809
▁срок	-8.6781
▁Донена	-8.6781
времен	-8.67811
▁присоединил	-8.67811
▁плей	-8.67812
▁позвол	-8.67813
▁поэт	-8.67815
альнейш	-8.67816
велич	-8.67817
▁решени	-8.67818
ничь	-8.67819
ряжение	-8.67821
екта	-8.67825
берт	-8.67828
▁Роджер	-8.6783
▁план	-8.67834
▁Данн	-8.67835
дцат	-8.67838
гуа	-8.67839
▁реши	-8.67843
▁отправил	-8.67844
нце	-8.67845
▁зон	-8.67853
тическо	-8.67853
правля	-8.67856
▁принят	-8.6786
Фил	-8.67861
▁Джин	-8.67863
▁рост	-8.67864
▁кинокарьер	-8.67876
▁стади	-8.67878
▁Gra	-8.67887
ci	-8.67912
чного	-8.67917
▁соседн	-8.67922
крас	-8.67928
▁No	-8.67929
▁вышл	-8.67958
▁проигра	-8.67982
ностью	-8.67994
▁газеты	-8.68002
▁возник	-8.68008
урна	-8.68011
веден	-8.68052
адель	-8.68058
▁поздн	-8.68132
▁правд	-8.68152
▁открыт	-8.68177
вер	-8.6818
строен	-8.68186
рать	-8.68191
финал	-8.68209
очн	-8.68219
▁трудности	-8.68227
▁номер	-8.68252
▁реп	-8.68283
▁образом	-8.68284
▁соб	-8.68301
овали	-8.68377
▁последни	-8.68382
▁таким	-8.68399
▁Пер	-8.68444
▁улице	-8.68506
скоре	-8.68508
естр	-8.68538
▁поселенц	-8.68582
▁обыгра	-8.68699
▁столкновения	-8.68784
гру	-8.68867
▁бомби	-8.68946
▁постановк	-8.68949
▁образ	-8.68961
▁заявило	-8.6906
ur	-8.69083
икл	-8.69089
ийско	-8.69112
▁оказал	-8.69235
ктивн	-8.69281
▁благод	-8.69342
▁ста	-8.69377
слав	-8.6939
▁счёт	-8.69404
ц	-8.69426
▁перв	-8.69446
дат	-8.69603
▁вора	-8.69605
▁Кр	-8.69733
ца	-8.69754
▁э	-8.70038
▁потреб	-8.70129
ейна	-8.7016
ter	-8.70361
пераци	-8.70452
▁действий	-8.70457
ицы	-8.7048
рот	-8.70514
▁рол	-8.70675
▁известност	-8.70744
▁значительны	-8.70767
ец	-8.70794
сов	-8.71122
▁ав	-8.71202
▁победн	-8.71357
z	-8.71365
нов	-8.71431
▁втор	-8.71518
▁мин	-8.71641
▁остр	-8.71687
▁ране	-8.71887
▁До	-8.71935
▁Е	-8.72224
▁мигрантов	-8.72277
▁ма	-8.72314
▁часов	-8.72336
разд	-8.72507
му	-8.72534
ill	-8.72667
руги	-8.72969
ог	-8.72995
▁высок	-8.7311
m	-8.73501
▁вооружённо	-8.73773
▁военные	-8.7395
▁кру	-8.73958
▁поз	-8.74184
ние	-8.74763
ch	-8.75078
несли	-8.75156
▁сайт	-8.75226
стрел	-8.75597
▁провел	-8.75882
актёров	-8.76186
ча	-8.77685
▁населённы	-8.77686
ad	-8.77693
▁ком	-8.77704
▁Ме	-8.78787
тин	-8.78919
лет	-8.78947
▁дополнительно	-8.79492
▁Эт	-8.79776
уже	-8.80523
▁Золото	-8.81487
енные	-8.81979
мог	-8.82163
ана	-8.82362
ции	-8.82708
ру	-8.83131
▁Да	-8.83232
▁использова	-8.8326
Обе	-8.83279
▁то	-8.83857
ду	-8.84168
дела	-8.84311
ада	-8.8464
▁вооружённ	-8.85014
▁которым	-8.85293
▁ним	-8.85774
чес	-8.85957
тя	-8.86152
▁други	-8.87184
ve	-8.8753
e	-8.876
mo	-8.8784
ол	-8.8797
мент	-8.8843
шь	-8.88639
▁Мо	-8.88761
▁обще	-8.89749
▁друг	-8.90063
рд	-8.92237
▁экономическо	-8.92547
нь	-8.93265
лё	-8.94164
жен	-8.94595
▁земельн	-8.94788
mb	-8.95131
▁нача	-8.96607
оте	-8.96854
стве	-8.9722
▁погиб	-8.97247
▁занят	-8.98425
йти	-8.9876
▁работа	-8.9891
ьно	-8.99334
▁Ло	-9.00376
▁города	-9.00486
тле	-9.00764
▁та	-9.01602
бе	-9.02821
▁документ	-9.03061
ста	-9.03374
ительно	-9.03761
▁лиш	-9.04684
▁Мар	-9.04832
ющ	-9.05634
ti	-9.05672
▁представля	-9.05916
рель	-9.06065
тил	-9.06072
тив	-9.06176
▁пр	-9.0627
h	-9.06505
▁прове	-9.07023
би	-9.07292
▁широко	-9.07302
▁че	-9.08898
пан	-9.09051
ень	-9.09337
▁оцен	-9.09353
начал	-9.09436
льного	-9.09526
э	-9.09622
▁предоставлен	-9.09643
f	-9.101
Окотепеке	-9.10235
C	-9.1052
дро	-9.10685
▁продолж	-9.10773
Е	-9.1098
st	-9.10986
мигрантов	-9.10988
часов	-9.11007
Ф	-9.11168
против	-9.11383
G	-9.11405
Gu	-9.11551
T	-9.11556
преми	-9.11602
таци	-9.11633
картин	-9.1169
Эт	-9.11757
боле	-9.118
И	-9.11809
чем	-9.11846
I	-9.11854
▁установлен	-9.11868
стран	-9.11873
▁безопасност	-9.11898
сальвадорск	-9.12205
есть	-9.12467
алось	-9.12486
щих	-9.12614
ство	-9.12707
▁приобр	-9.1301
▁авто	-9.13017
▁известн	-9.13186
▁Куб	-9.13315
▁рождени	-9.13361
вших	-9.13447
an	-9.13641
▁драм	-9.13665
начала	-9.13703
ледующи	-9.13835
ey	-9.1384
▁пред	-9.13915
сте	-9.13918
требова	-9.14125
ta	-9.14207
▁Од	-9.14334
▁рассмотре	-9.14478
▁нападени	-9.14563
следующи	-9.14578
▁выступа	-9.1482
остояни	-9.14907
уни	-9.14964
pe	-9.15108
▁благо	-9.15354
мать	-9.15462
Х	-9.15609
▁пункт	-9.15642
Ама	-9.15824
яще	-9.15832
▁памятник	-9.15908
становка	-9.1597
▁наци	-9.15972
▁получ	-9.16026
▁побед	-9.16027
нием	-9.161
дки	-9.16243
её	-9.16468
дне	-9.1667
стояние	-9.16676
след	-9.16948
▁шпион	-9.16969
основ	-9.16978
▁номин	-9.1707
▁футбол	-9.17086
оенные	-9.17099
▁Кар	-9.17185
ооружён	-9.17393
▁установ	-9.17406
циальны	-9.1745
te	-9.17461
жн	-9.17485
действ	-9.17519
бомб	-9.17526
спор	-9.17546
ica	-9.17582
быва	-9.1759
▁рабоч	-9.1759
ig	-9.17716
ступил	-9.17719
▁чемпион	-9.17751
густ	-9.17759
ическ	-9.1777
▁заключ	-9.17772
джер	-9.17787
▁роман	-9.17789
▁арм	-9.17793
езультат	-9.17806
ъ	-9.17807
onflict	-9.17807
▁огранич	-9.17807
спектакл	-9.17807
▁El	-9.17807
▁We	-9.17807
▁Больш	-9.17807
▁водевил	-9.17807
▁деятельност	-9.17807
▁звёзд	-9.17807
▁объясня	-9.17807
▁принадлежа	-9.17807
▁требу	-9.17807
K	-9.17807
Movie	-9.17807
X	-9.17807
acion	-9.17807
eña	-9.17807
é	-9.17807
ó	-9.17807
útbol	-9.17807
Бергман	-9.17807
Бум	-9.17807
Сильви	-9.17807
билизаци	-9.17807
льскохозяйственн	-9.17807
средств	-9.17807
ционно	-9.17807
▁America	-9.17807
▁Database	-9.17807
▁Disp	-9.17807
▁Jo	-9.17807
▁Mc	-9.17807
▁Salvador	-9.17807
▁Александр	-9.17807
▁Америка	-9.17807
▁Арчибальд	-9.17807
▁Бауманск	-9.17807
▁Гватемал	-9.17807
▁Источники	-9.17807
▁Международн	-9.17807
▁Непосредственн	-9.17807
▁Переселен	-9.17807
▁Сергеевич	-9.17807
▁Уильям	-9.17807
▁Фрэнк	-9.17807
▁Хоукса	-9.17807
▁Шелдон	-9.17807
▁авиабаз	-9.17807
▁акробатическим	-9.17807
▁британско	-9.17807
▁военнослужащи	-9.17807
▁возрасте	-9.17807
▁вынужден	-9.17807
▁глобус	-9.17807
▁гранита	-9.17807
▁дебют	-9.17807
▁единственн	-9.17807
▁забастовк	-9.17807
▁известен	-9.17807
▁имущества	-9.17807
▁интеграци	-9.17807
▁информаци	-9.17807
▁источник	-9.17807
▁истребителей	-9.17807
▁кинематографа	-9.17807
▁киноиндустрии	-9.17807
▁критики	-9.17807
▁масштаб	-9.17807
▁медленно	-9.17807
▁мемориальн	-9.17807
▁многочисленн	-9.17807
▁напряжённ	-9.17807
▁небольш	-9.17807
▁недовольство	-9.17807
▁нелегальны	-9.17807
▁неоднозначн	-9.17807
▁отзывы	-9.17807
▁перераспределен	-9.17807
▁пехотн	-9.17807
▁пограничн	-9.17807
▁подавлен	-9.17807
▁полнометражны	-9.17807
▁предполага	-9.17807
▁преследования	-9.17807
▁публики	-9.17807
▁развёрнут	-9.17807
▁решающ	-9.17807
▁русск	-9.17807
▁сальвадорца	-9.17807
▁свободн	-9.17807
▁скоротечн	-9.17807
▁служб	-9.17807
▁сотрудничеств	-9.17807
▁супруг	-9.17807
▁творчески	-9.17807
▁удосто	-9.17807
▁ходулях	-9.17807
▁центрально	-9.17807
▁четвёрт	-9.17807
▁шестидневн	-9.17807
▁школ	-9.17807
▁штурмовик	-9.17807
▁Испани	-9.17807
▁прекрати	-9.17807
Стюарт	-9.17807
частлив	-9.17807
▁Ju	-9.17807
▁Участ	-9.17807
▁глубин	-9.17807
▁историческо	-9.17807
▁крестьян	-9.17807
▁меньш	-9.17807
▁министр	-9.17807
▁осадно	-9.17807
▁переговор	-9.17807
▁писател	-9.17807
▁процесс	-9.17807
▁Шуберт	-9.17807
▁воздух	-9.17807
▁высыл	-9.17807
▁количеств	-9.17807
▁четырёх	-9.17807
▁времён	-9.17807
▁достиг	-9.17807
миграции	-9.17808
ограф	-9.17808
сследовани	-9.17808
▁класс	-9.17808
наград	-9.17808
▁Констан	-9.17808
▁гастрол	-9.17808
Копан	-9.17808
рёх	-9.17808
гарта	-9.17808
▁футболист	-9.17808
▁войну	-9.17809
влекательн	-9.17809
▁подписал	-9.17809
▁облада	-9.17809
▁отвод	-9.1781
▁генерал	-9.1781
▁провальны	-9.1781
▁критическ	-9.1781
▁поддержк	-9.17811
▁вызва	-9.17811
ивше	-9.17811
склон	-9.17811
▁дипломатически	-9.17811
▁этим	-9.17811
высше	-9.17811
▁пригласил	-9.17811
ning	-9.17811
▁призыв	-9.17811
▁юбк	-9.17811
▁авиабомб	-9.17812
▁статус	-9.17812
▁привод	-9.17812
AFI	-9.17812
рылья	-9.17812
▁молод	-9.17813
▁ангел	-9.17813
политически	-9.17813
▁флаг	-9.17814
▁бронзовы	-9.17815
▁контрол	-9.17815
▁Алек	-9.17816
ризис	-9.17816
▁сэр	-9.17816
▁Гиль	-9.17816
▁уникальн	-9.17817
ошен	-9.17818
lion	-9.17819
тико	-9.17819
▁пилот	-9.17819
▁продвинул	-9.17819
зона	-9.1782
сложн	-9.1782
бюст	-9.1782
Радио	-9.17821
▁чемпионски	-9.17821
▁поток	-9.17821
▁совместн	-9.17823
▁Анто	-9.17824
▁массово	-9.17825
гнан	-9.17826
▁встреч	-9.17827
пущен	-9.17827
▁сцен	-9.17828
▁грузовик	-9.17828
▁ночь	-9.17828
▁Мак	-9.17828
ir	-9.17829
▁выдающи	-9.17829
налоги	-9.17833
▁послу	-9.17834
ebra	-9.17834
▁составлял	-9.17834
есси	-9.17835
▁плохо	-9.17837
▁расс	-9.17838
▁удар	-9.1784
▁Films	-9.17841
▁заключённы	-9.17841
▁Мирн	-9.17843
посад	-9.17846
▁трен	-9.17847
ёт	-9.17847
▁Документальны	-9.17849
стоя	-9.1785
▁проигры	-9.17852
▁Эрнан	-9.17853
▁двусторонни	-9.17854
hor	-9.17854
▁закрепил	-9.17858
ard	-9.17864
▁ухудш	-9.17864
▁бомбардировщик	-9.17865
▁армия	-9.17866
▁составленн	-9.17867
▁наступление	-9.17867
▁беж	-9.17869
ятни	-9.17873
▁страст	-9.17875
▁перенаселённ	-9.17876
▁участник	-9.17878
рше	-9.1788
nald	-9.17882
▁густо	-9.17882
вич	-9.17885
▁прогр	-9.17885
зывают	-9.17886
sse	-9.17889
елки	-9.17894
▁производ	-9.17895
▁голод	-9.17896
▁захвати	-9.17898
▁Ge	-9.17901
vi	-9.17905
val	-9.17908
▁дорог	-9.1791
полне	-9.1791
▁организаци	-9.17911
руш	-9.17913
▁неудач	-9.17914
▁особ	-9.17914
▁капитан	-9.17918
▁бога	-9.17918
▁начина	-9.17921
▁титул	-9.17931
▁культов	-9.17934
Федераци	-9.17938
▁угроз	-9.17939
луб	-9.17944
шедш	-9.17947
▁театральн	-9.17947
▁согласился	-9.17955
sk	-9.17966
▁Роза	-9.1798
тенан	-9.17981
▁назнач	-9.17982
инолента	-9.17983
▁скульптор	-9.17985
ld	-9.17986
▁раненых	-9.17991
▁призна	-9.17998
lo	-9.18015
ветско	-9.18015
цир	-9.18019
▁рабочих	-9.18024
▁данным	-9.18032
нако	-9.18034
чик	-9.18038
▁выиграл	-9.18038
ri	-9.1804
▁президентско	-9.18042
▁название	-9.18047
▁Канад	-9.18058
▁Мон	-9.18064
▁увелич	-9.18064
▁Рейн	-9.18071
▁геро	-9.18072
sza	-9.18078
▁военными	-9.18083
▁рег	-9.18094
▁Впоследствии	-9.18099
плату	-9.18104
▁власт	-9.18105
▁волн	-9.18117
▁имевш	-9.18117
▁социальн	-9.18119
▁похва	-9.18126
ечь	-9.18132
тличи	-9.18137
тельств	-9.18145
▁слаб	-9.18149
прово	-9.18174
лений	-9.18185
критиками	-9.18193
▁реме	-9.18193
▁огня	-9.18197
▁аг	-9.18206
▁Северной	-9.18212
▁публикой	-9.18212
зрыв	-9.18214
▁Эск	-9.18228
ologi	-9.18262
офф	-9.18297
▁док	-9.18317
▁попа	-9.18323
▁Фон	-9.18349
▁официальн	-9.18366
ner	-9.18374
мир	-9.18391
ll	-9.18398
▁лучше	-9.18405
▁Джо	-9.18436
▁инцидент	-9.18437
▁прод	-9.18446
выше	-9.18455
семь	-9.18464
▁гражданск	-9.18498
▁шест	-9.18509
▁знаков	-9.1851
землевладельцами	-9.18523
▁доск	-9.18528
жил	-9.18538
na	-9.18548
orte	-9.18551
▁назван	-9.18559
▁жизни	-9.18564
▁задолженности	-9.18564
овавши	-9.18581
▁мяча	-9.1862
шпионск	-9.18652
вид	-9.18672
▁перебра	-9.18681
кон	-9.18685
илла	-9.18689
▁Аль	-9.18711
ерр	-9.18776
онско	-9.18788
▁гражданин	-9.18793
▁права	-9.18799
бросил	-9.18849
▁прибыв	-9.18976
▁целом	-9.1901
держ	-9.19017
ly	-9.19026
▁Мэт	-9.19065
▁достижение	-9.1907
▁реформе	-9.19071
▁прокате	-9.19087
пло	-9.19176
▁Поз	-9.19181
ение	-9.1924
вет	-9.19249
▁обществ	-9.19279
▁направ	-9.19284
▁Начал	-9.19328
ибел	-9.19342
очко	-9.19345
урное	-9.1936
товы	-9.19393
▁уб	-9.19396
коло	-9.19451
ron	-9.19461
▁приз	-9.1947
▁попытк	-9.19653
нка	-9.19685
тельного	-9.19731
▁населения	-9.19796
▁над	-9.19808
▁Нач	-9.19882
ительны	-9.199
ланд	-9.19913
тельны	-9.19923
Хо	-9.19974
▁пункта	-9.20019
▁памятника	-9.20028
мён	-9.20077
аря	-9.20148
комп	-9.20174
лёт	-9.20178
▁дол	-9.20183
▁июн	-9.20328
▁полу	-9.20354
остя	-9.20515
▁ухо	-9.20627
ора	-9.20661
▁студ	-9.20696
▁верси	-9.20714
▁департамент	-9.20714
▁Ник	-9.20715
▁Honduras	-9.20716
▁суд	-9.20792
ывали	-9.20812
▁Ch	-9.20816
▁Джон	-9.20841
телями	-9.20848
десят	-9.20875
▁выход	-9.20978
▁позиций	-9.20984
▁муж	-9.20985
▁закон	-9.21025
▁коммерчески	-9.21052
▁пор	-9.21056
▁депортирова	-9.21063
▁поражения	-9.21067
▁друга	-9.21083
▁нападения	-9.21157
чным	-9.21179
являл	-9.21235
▁рассмотрени	-9.21265
ача	-9.21271
▁урегулировани	-9.21299
ехал	-9.21335
олу	-9.21466
▁Хичкока	-9.21484
люби	-9.21553
ание	-9.21602
мет	-9.21626
▁списк	-9.21644
омим	-9.21663
а́	-9.21699
овало	-9.21708
твер	-9.21728
ными	-9.2173
▁места	-9.21741
пр	-9.21772
ороши	-9.21855
▁выбра	-9.21873
▁выступал	-9.21941
шт	-9.21944
ением	-9.21994
▁противостоя	-9.22032
▁имен	-9.22037
▁Одно	-9.22251
езд	-9.22253
лн	-9.22277
re	-9.22394
рождению	-9.22479
▁Кубк	-9.22514
ры	-9.22524
овах	-9.22528
▁Ча	-9.22619
рана	-9.22823
▁приобре	-9.22839
▁занимал	-9.22855
▁автор	-9.22896
инств	-9.23062
▁принесл	-9.23104
▁мо	-9.23247
za	-9.23449
рти	-9.23813
ивало	-9.24063
▁безопасность	-9.24077
мпани	-9.24114
ессе	-9.24127
▁тур	-9.2414
▁промышленност	-9.24165
перед	-9.24297
▁вве	-9.24329
▁слу	-9.24357
▁установленн	-9.24598
еатр	-9.24641
рии	-9.24729
лена	-9.24864
Кор	-9.24948
мера	-9.24963
ставших	-9.25003
▁усилило	-9.25063
▁затя	-9.25118
ег	-9.25258
мож	-9.25571
лить	-9.25588
ажда	-9.25625
▁хо	-9.25727
▁пу	-9.25812
▁командование	-9.25862
▁снима	-9.25953
▁Окотепеке	-9.2598
▁f	-9.26006
▁связан	-9.26072
▁проживал	-9.26129
▁уни	-9.26368
нуло	-9.2645
иб	-9.26662
ус	-9.26685
▁предоставлени	-9.26836
▁оценк	-9.27018
нд	-9.27139
парт	-9.27464
яны	-9.27659
ями	-9.28142
▁сни	-9.28972
▁поводо	-9.29001
▁интер	-9.29029
бора	-9.29105
▁застрелил	-9.29118
▁способ	-9.29315
апал	-9.29422
▁широк	-9.29507
вое	-9.29869
▁Ре	-9.2992
▁Ле	-9.30161
пт	-9.30442
чт	-9.30768
▁Дже	-9.30875
▁ув	-9.30933
рио	-9.3096
▁атаку	-9.30968
▁главны	-9.3125
▁обр	-9.31521
▁отбор	-9.31636
▁пос	-9.31716
ена	-9.31778
▁юн	-9.32225
нит	-9.32301
иональн	-9.32326
тов	-9.32382
▁вос	-9.32444
мп	-9.32671
ан	-9.32732
▁представляющ	-9.32794
быт	-9.3284
арте	-9.32896
земельны	-9.33389
лина	-9.3367
из	-9.33804
ест	-9.33938
вард	-9.34107
рис	-9.35073
▁завершил	-9.35731
обно	-9.35783
▁заявление	-9.35859
▁пов	-9.36432
вой	-9.36882
работк	-9.37265
зображени	-9.37266
▁in	-9.37565
ре	-9.38765
зи	-9.39375
шать	-9.39499
льо	-9.39862
яс	-9.4014
▁торговл	-9.40786
▁заняты	-9.41856
степенно	-9.42053
защит	-9.42275
вая	-9.42641
sa	-9.4273
кни	-9.42913
▁погибл	-9.43547
▁предприн	-9.43583
ды	-9.44569
дам	-9.44904
v	-9.44974
▁разме	-9.45445
онд	-9.45556
▁ф	-9.45701
▁войскам	-9.46397
▁сня	-9.47924
▁Ин	-9.4816
анг	-9.48244
Пол	-9.48247
ттера	-9.48562
arl	-9.48585
▁сме	-9.49292
ндера	-9.49605
биты	-9.51876
▁бывш	-9.52124
▁приключенческо	-9.54105
▁стрем	-9.54593
▁Co	-9.54838
▁одном	-9.55917
анта	-9.58209
тремя	-9.58321
▁приключенческ	-9.58821
erm	-9.5904
несён	-9.59664
um	-9.60546
ent	-9.62286
ыш	-9.62296
кате	-9.62566
земельн	-9.63016
▁час	-9.63776
ула	-9.63877
land	-9.65177
андер	-9.65412
▁Сво	-9.65647
аттер	-9.66234
одозрение	-9.66335
ят	-9.66358
три	-9.67934
пад	-9.68077
нну	-9.68086
▁провед	-9.69203
▁истори	-9.69794
art	-9.69826
▁использовали	-9.70098
▁общ	-9.70347
▁предпри	-9.71116
ear	-9.71531
▁Об	-9.72164
ган	-9.72588
▁защи	-9.72798
▁ба	-9.74773
етт	-9.75006
nd	-9.7512
чест	-9.75382
еке	-9.75409
ns	-9.76276
oma	-9.7646
og	-9.78467
▁дополнительн	-9.79423
ye	-9.79603
▁изображ	-9.79879
ni	-9.79906
▁населён	-9.81804
▁заверш	-9.8222
▁нанес	-9.82247
позиция	-9.83069
▁переш	-9.84233
зна	-9.84444
ade	-9.84814
ост	-9.84816
▁Мэ	-9.85493
реды	-9.86749
амент	-9.8796
am	-9.88151
▁появлени	-9.88299
остав	-9.8872
ож	-9.89466
сп	-9.89517
▁главн	-9.89573
▁атак	-9.90069
жим	-9.91681
ez	-9.91833
ol	-9.93004
способно	-9.93012
▁уро	-9.93196
сим	-9.93592
оводов	-9.936
енда	-9.93874
ступления	-9.94053
▁застрел	-9.94335
▁нег	-9.95484
▁Памят	-9.96215
ber	-9.96314
▁Th	-9.96652
альны	-9.96846
oo	-9.97742
▁Дж	-9.98888
▁прожива	-9.9908
вязанны	-9.99205
▁командовани	-9.99706
вол	-10.0012
il	-10.0024
▁заявлени	-10.0041
▁усили	-10.0094
ng	-10.0114
▁следующ	-10.0131
тянул	-10.0223
онате	-10.0263
ic	-10.0273
ne	-10.0299
тель	-10.0336
▁доб	-10.0403
▁Ан	-10.0528
степен	-10.0551
ён	-10.0598
as	-10.0614
▁значительн	-10.0631
▁Sc	-10.0674
рош	-10.0726
изит	-10.0726
▁занима	-10.075
▁произош	-10.0842
реж	-10.0874
люб	-10.0883
nter	-10.093
▁урегулирован	-10.0938
▁выступ	-10.0951
онс	-10.0964
Р	-10.0976
▁подозре	-10.098
Э	-10.0982
▁депорт	-10.0992
▁коммерческ	-10.0994
▁поражени	-10.0997
ствовал	-10.0998
▁дев	-10.0999
населённы	-10.1068
▁прекращен	-10.107
Ник	-10.1072
Honduras	-10.1072
департамент	-10.1072
муж	-10.1073
выход	-10.1075
Джо	-10.1078
закон	-10.1078
Ch	-10.1081
Ar	-10.1085
верси	-10.1093
▁участ	-10.1107
прес	-10.1115
студ	-10.1116
которым	-10.1121
тейн	-10.1133
имат	-10.1137
счёт	-10.1139
образ	-10.114
О	-10.1141
Ч	-10.1148
шённ	-10.1149
▁участвова	-10.1156
раз	-10.1163
одн	-10.1168
O	-10.1169
экономически	-10.1183
P	-10.1187
руг	-10.1193
гондурасск	-10.1201
Хосе	-10.1203
аци	-10.1209
фильмов	-10.1222
цел	-10.1224
уча	-10.1225
сальвадорцев	-10.1225
Гондурас	-10.1231
▁заня	-10.1233
«	-10.1241
Тр	-10.1244
вящ	-10.1264
▁снят	-10.1265
мес	-10.1266
▁данн	-10.1286
театр	-10.1289
ссел	-10.129
▁перебр	-10.1319
▁попыт	-10.1324
остр	-10.1336
▁соглаш	-10.1379
анди	-10.1388
▁Du	-10.1393
кульптурн	-10.1394
поз	-10.1397
ma	-10.1399
обедител	-10.1404
чет	-10.1412
точк	-10.1423
апа	-10.144
ляет	-10.1442
▁побе	-10.1442
оманда	-10.1458
селенцам	-10.1464
▁прокат	-10.1465
ap	-10.1469
полнил	-10.147
▁реформ	-10.1473
▁достижени	-10.1475
ация	-10.1484
▁улиц	-10.1507
▁полож	-10.1509
▁соп	-10.1523
рен	-10.1525
пол	-10.153
▁назва	-10.1535
чны	-10.1545
стр	-10.1552
ателя	-10.1561
▁мяч	-10.1584
▁задолженност	-10.159
▁жизн	-10.159
каж	-10.1592
ойска	-10.1595
▁землевладельц	-10.16
▁режиссёр	-10.1605
▁этап	-10.1605
▁трудност	-10.1607
▁знако	-10.1609
скор	-10.1612
▁свед	-10.1618
▁фина	-10.162
нцидент	-10.1622
▁земл	-10.1622
Cor	-10.1629
ман	-10.163
▁территори	-10.1632
▁представ	-10.1632
▁отказ	-10.1643
▁откры	-10.1647
▁произ	-10.1651
фициальны	-10.1652
скоп	-10.1666
ёк	-10.1666
лучш	-10.1671
▁обраб	-10.1675
▁публико	-10.1678
▁Северно	-10.1679
col	-10.168
▁населени	-10.1683
▁критика	-10.1683
▁огн	-10.1698
тор	-10.1698
▁газет	-10.17
стиж	-10.1701
ony	-10.1706
li	-10.1706
плат	-10.1706
последствии	-10.1707
родве	-10.1708
ele	-10.1708
ерж	-10.1713
фф	-10.1716
ления	-10.1716
Одна	-10.1725
уэ	-10.1735
ровал	-10.1739
писани	-10.1739
учш	-10.174
Al	-10.1741
▁заяви	-10.1742
▁странам	-10.1742
положен	-10.1743
▁ради	-10.1745
▁предостав	-10.1746
мещени	-10.1747
▁стра	-10.1748
▁сосед	-10.1749
едераци	-10.175
оглас	-10.1751
казы	-10.1752
инокарьер	-10.1753
собенно	-10.1754
рганизаци	-10.1754
ульт	-10.1755
▁мигрант	-10.1758
водств	-10.1758
▁заби	-10.1759
быгра	-10.1759
удач	-10.1761
ывают	-10.1762
крыт	-10.1762
▁угро	-10.1763
▁рос	-10.1763
еребр	-10.1765
▁бомбардиров	-10.1766
щики	-10.1766
худш	-10.1766
становлен	-10.1767
дши	-10.1767
крепи	-10.1768
гроз	-10.1768
ношени	-10.1768
сторонни	-10.1769
артина	-10.1769
роигры	-10.1769
вавш	-10.177
▁Кинтани	-10.1771
ополнительн	-10.1772
▁Film	-10.1772
форм	-10.1773
▁Эрн	-10.1773
Футбол	-10.1774
итул	-10.1775
ождению	-10.1775
уще	-10.1776
атч	-10.1776
тически	-10.1777
титу	-10.1777
двинул	-10.1778
сцени	-10.1778
▁контр	-10.1779
начительно	-10.1779
соедин	-10.1779
узы	-10.178
ипломатическ	-10.178
▁связ	-10.178
▁пригла	-10.178
▁Wa	-10.178
▁Hondur	-10.178
треть	-10.178
▁состо	-10.1781
ущественн	-10.1781
сущ	-10.1781
Y	-10.1781
j	-10.1781
x	-10.1781
á	-10.1781
í	-10.1781
ń	-10.1781
ś	-10.1781
“	-10.1781
„	-10.1781
Ж	-10.1781
Q	-10.1781
Я	-11.5281
ú	-11.5282
ñ	-11.5283
w	-11.5284
%	-11.5285
Ю	-11.5286
V	-11.5287
J	-11.5288
L	-11.5289
R	-11.529
H	-11.5291
W	-11.5292
M	-11.5293
E	-11.5294
Ц	-11.5295
З	-11.5296
Б	-11.5297
Н	-11.5298
щ	-11.5299
r	-11.53
(	-11.5301
=	-11.5302
ж	-11.5303
