<unk>	0
<s>	0
</s>	0
▁с	-0
ра	-1
▁в	-2
▁п	-3
ль	-4
го	-5
ст	-6
на	-7
▁и	-8
ни	-9
но	-10
ко	-11
ро	-12
ва	-13
ре	-14
▁го	-15
ли	-16
до	-17
▁о	-18
ны	-19
то	-20
▁по	-21
ри	-22
ду	-23
ка	-24
ме	-25
ле	-26
те	-27
▁на	-28
та	-29
▁б	-30
ки	-31
▁са	-32
не	-33
▁д	-34
ло	-35
рас	-36
▁г	-37
ла	-38
ми	-39
▁а	-40
льва	-41
львадо	-42
да	-43
▁«	-44
▁з	-45
нду	-46
ндурас	-47
во	-48
▁гондурас	-49
▁сальвадо	-50
че	-51
▁(	-52
▁ко	-53
ве	-54
бо	-55
▁во	-56
ча	-57
ма	-58
ти	-59
▁у	-60
==	-61
ви	-62
▁к	-63
де	-64
▁за	-65
▁ф	-66
▁==	-67
же	-68
ля	-69
ся	-70
ру	-71
мо	-72
ско	-73
▁со	-74
▁гра	-75
ди	-76
▁про	-77
▁ра	-78
ски	-79
нт	-80
це	-81
▁гондураса	-82
ние	-83
▁ме	-84
▁сальвадор	-85
ния	-86
ных	-87
▁бы	-88
▁при	-89
ци	-90
ть	-91
▁—	-92
▁не	-93
сь	-94
▁т	-95
▁от	-96
▁пре	-97
ня	-98
по	-99
▁э	-100
сто	-101
▁до	-102
▁фи	-103
се	-104
ше	-105
тель	-106
пи	-107
нно	-108
ры	-109
гра	-110
▁ка	-111
▁вы	-112
ста	-113
▁де	-114
▁года	-115
▁из	-116
хо	-117
сти	-118
ной	-119
пе	-120
▁пе	-121
▁ре	-122
▁ст	-123
па	-124
▁об	-125
▁ро	-126
▁че	-127
▁филь	-128
кт	-129
лу	-130
са	-131
ши	-132
ну	-133
сле	-134
▁ию	-135
▁вой	-136
ты	-137
▁те	-138
нта	-139
ные	-140
ный	-141
▁бо	-142
▁сальвадора	-143
би	-144
зо	-145
чи	-146
▁ки	-147
вы	-148
лся	-149
со	-150
ще	-151
ная	-152
▁ма	-153
ство	-154
▁се	-155
▁кото	-156
▁стра	-157
▁е	-158
ска	-159
ar	-160
мя	-161
си	-162
▁году	-163
).	-164
ских	-165
ву	-166
щи	-167
▁ми	-168
▁пра	-169
жи	-170
ку	-171
му	-172
ут	-173
рии	-174
▁то	-175
▁кон	-176
▁раз	-177
▁после	-178
ra	-179
за	-180
сть	-181
ного	-182
▁грант	-183
),	-184
мы	-185
ён	-186
▁↑	-187
ром	-188
▁ста	-189
»,	-190
га	-191
бор	-192
▁та	-193
лись	-194
утбо	-195
▁нача	-196
er	-197
жа	-198
зи	-199
ря	-200
▁ч	-201
она	-202
▁пере	-203
ёр	-204
▁c	-205
▁акт	-206
▁был	-207
▁уча	-208
▁июля	-209
▁сбор	-210
▁прави	-211
▁p	-212
▁бе	-213
стве	-214
▁правитель	-215
нг	-216
▁кар	-217
▁чем	-218
▁кино	-219
бе	-220
ги	-221
вле	-222
цев	-223
ции	-224
▁но	-225
мери	-226
ской	-227
▁под	-228
▁сво	-229
▁это	-230
▁были	-231
▁пред	-232
▁которы	-233
лё	-234
ур	-235
ша	-236
жду	-237
ман	-238
▁од	-239
▁хо	-240
▁сто	-241
▁что	-242
▁между	-243
nt	-244
ды	-245
ке	-246
цы	-247
ского	-248
▁грани	-249
▁футбо	-250
on	-251
».	-252
ба	-253
ем	-254
лю	-255
ье	-256
▁d	-257
рри	-258
сте	-259
ющи	-260
▁ар	-261
▁си	-262
▁вое	-263
ррито	-264
▁чемпи	-265
▁террито	-266
▁правительство	-267
▁a	-268
▁g	-269
вши	-270
сту	-271
▁он	-272
▁па	-273
рова	-274
тиче	-275
▁мат	-276
▁территории	-277
он	-278
ца	-279
▁f	-280
жда	-281
лья	-282
нов	-283
ном	-284
▁же	-285
▁ли	-286
▁пу	-287
ские	-288
▁===	-289
▁исто	-290
▁само	-291
мерика	-292
фи	-293
▁м	-294
вля	-295
нии	-296
▁да	-297
стви	-298
▁дву	-299
▁для	-300
мерикан	-301
▁участи	-302
▁t	-303
ний	-304
▁ве	-305
▁це	-306
▁его	-307
▁так	-308
▁июня	-309
▁место	-310
▁сальвадором	-311
or	-312
рт	-313
▁s	-314
▁х	-315
▁я	-316
ным	-317
пол	-318
ран	-319
руп	-320
спе	-321
ёра	-322
▁ис	-323
▁ни	-324
лось	-325
ская	-326
▁воз	-327
▁где	-328
▁рас	-329
▁рабо	-330
▁гражда	-331
▁самолё	-332
бы	-333
гу	-334
ей	-335
нь	-336
ту	-337
▁i	-338
вер	-339
гла	-340
кта	-341
ное	-342
ров	-343
том	-344
тся	-345
фли	-346
яви	-347
▁ин	-348
▁ча	-349
лась	-350
нтра	-351
стре	-352
▁вре	-353
▁два	-354
▁как	-355
льной	-356
▁прои	-357
▁войны	-358
▁карье	-359
▁также	-360
▁конфли	-361
▁фильмо	-362
▁границы	-363
▁чемпиона	-364
▁сальвадорцев	-365
al	-366
an	-367
el	-368
ом	-369
ор	-370
пу	-371
анг	-372
дне	-373
дов	-374
дол	-375
ору	-376
той	-377
▁мо	-378
англ	-379
коно	-380
лько	-381
оруж	-382
ства	-383
ыгра	-384
▁кри	-385
жение	-386
ность	-387
▁арми	-388
▁мира	-389
▁успе	-390
кономи	-391
▁актёр	-392
▁сборной	-393
ат	-394
зы	-395
лы	-396
су	-397
бли	-398
вет	-399
клю	-400
лен	-401
нию	-402
ную	-403
тов	-404
шки	-405
ыся	-406
▁га	-407
▁ку	-408
меди	-409
ника	-410
ский	-411
▁gra	-412
▁тур	-413
льный	-414
▁заня	-415
▁поло	-416
▁роль	-417
▁тыся	-418
▁соста	-419
▁гранта	-420
▁комеди	-421
▁страна	-422
▁фильмов	-423
▁экономи	-424
▁сальвадорских	-425
es	-426
вя	-427
зе	-428
зу	-429
об	-430
пы	-431
ща	-432
ёл	-433
▁ш	-434
вые	-435
ков	-436
кой	-437
про	-438
род	-439
дова	-440
нима	-441
нные	-442
▁око	-443
▁рай	-444
▁тре	-445
йстви	-446
нного	-447
нтани	-448
шения	-449
▁полу	-450
▁время	-451
▁матча	-452
▁турни	-453
▁тысяч	-454
▁вооруж	-455
▁граждан	-456
▁кинтани	-457
▁гондурасом	-458
ic	-459
вс	-460
ск	-461
эн	-462
▁o	-463
ary	-464
вой	-465
душ	-466
жде	-467
кра	-468
лей	-469
мот	-470
ник	-471
нич	-472
оне	-473
пра	-474
пре	-475
ция	-476
▁is	-477
▁зе	-478
▁ле	-479
ными	-480
смот	-481
ющих	-482
▁ввс	-483
▁пер	-484
▁поз	-485
▁сня	-486
ления	-487
льных	-488
полни	-489
▁груп	-490
▁отно	-491
▁армии	-492
▁годов	-493
▁крити	-494
▁согла	-495
▁продол	-496
▁центра	-497
▁действи	-498
▁странами	-499
bn	-500
he	-501
яб	-502
▁m	-503
▁w	-504
.).	-505
вал	-506
каф	-507
лее	-508
рия	-509
рой	-510
стя	-511
тив	-512
эри	-513
дент	-514
зова	-515
льно	-516
нако	-517
▁все	-518
▁вто	-519
▁дру	-520
▁зем	-521
▁име	-522
▁сан	-523
▁сша	-524
▁три	-525
какаф	-526
▁cary	-527
▁isbn	-528
▁боль	-529
▁двух	-530
▁наци	-531
▁обра	-532
▁памя	-533
▁grant	-534
▁война	-535
▁высту	-536
▁коман	-537
▁неско	-538
▁стала	-539
▁сторо	-540
▁сыгра	-541
▁фильм	-542
▁актёра	-543
▁прекра	-544
▁страны	-545
▁фильма	-546
▁американ	-547
▁конкакаф	-548
▁продолжа	-549
▁экономиче	-550
▁кинтанилья	-551
as	-552
il	-553
ni	-554
ol	-555
од	-556
фа	-557
ья	-558
▁h	-559
▁ю	-560
зва	-561
ней	-562
пер	-563
рез	-564
рин	-565
▁of	-566
▁ак	-567
▁ба	-568
▁их	-569
▁ше	-570
вого	-571
леду	-572
нием	-573
нных	-574
реди	-575
стоя	-576
теля	-577
щего	-578
▁the	-579
▁бое	-580
▁гол	-581
▁ком	-582
▁обе	-583
▁сил	-584
жения	-585
льная	-586
ности	-587
чение	-588
ённых	-589
▁была	-590
▁годы	-591
▁земе	-592
▁насе	-593
▁севе	-594
▁фина	-595
льзова	-596
▁карти	-597
▁роман	-598
▁своей	-599
▁следу	-600
ственно	-601
▁военно	-602
▁войска	-603
▁получи	-604
▁районе	-605
▁который	-606
▁предста	-607
▁сборная	-608
▁футболу	-609
▁чемпионата	-610
//	-611
ad	-612
am	-613
it	-614
la	-615
бу	-616
тя	-617
шо	-618
ём	-619
▁b	-620
вше	-621
вый	-622
гда	-623
дин	-624
дра	-625
зна	-626
кар	-627
ком	-628
кую	-629
лич	-630
лле	-631
мер	-632
мыш	-633
нес	-634
руд	-635
тра	-636
хва	-637
ход	-638
циа	-639
▁//	-640
▁de	-641
▁ав	-642
▁ге	-643
▁ди	-644
▁ос	-645
▁пя	-646
вали	-647
веде	-648
вших	-649
гово	-650
дель	-651
лове	-652
нове	-653
писа	-654
сили	-655
ское	-656
ском	-657
стро	-658
ходи	-659
ющие	-660
▁бом	-661
▁вер	-662
▁год	-663
▁кро	-664
▁том	-665
футбо	-666
ённые	-667
▁заби	-668
▁изве	-669
▁инте	-670
▁отбо	-671
▁побе	-672
▁пози	-673
▁режи	-674
▁самы	-675
▁теат	-676
▁того	-677
▁этот	-678
лирова	-679
ностью	-680
▁более	-681
▁заяви	-682
▁линии	-683
▁памят	-684
▁прези	-685
▁успех	-686
▁предло	-687
▁снялся	-688
▁стране	-689
▁фильме	-690
▁фильмы	-691
американ	-692
▁течение	-693
▁действия	-694
▁конфликт	-695
▁прекраще	-696
▁участием	-697
▁гондурасе	-698
▁сальвадорские	-699
.)	-700
en	-701
ге	-702
ис	-703
лк	-704
сс	-705
сы	-706
хи	-707
ess	-708
вых	-709
гие	-710
дер	-711
дио	-712
йти	-713
ках	-714
кры	-715
лях	-716
мию	-717
пад	-718
рди	-719
ред	-720
рес	-721
рон	-722
рта	-723
фор	-724
цию	-725
чай	-726
чко	-727
ших	-728
щая	-729
▁pr	-730
▁км	-731
▁су	-732
▁съ	-733
▁хи	-734
▁ян	-735
биты	-736
вать	-737
вшие	-738
галь	-739
днее	-740
ется	-741
зуль	-742
лице	-743
мент	-744
муще	-745
нный	-746
нтов	-747
пита	-748
скар	-749
тера	-750
ться	-751
ённо	-752
▁без	-753
▁дол	-754
▁дра	-755
▁зна	-756
▁лет	-757
▁спи	-758
▁тор	-759
доста	-760
ление	-761
стано	-762
стран	-763
телей	-764
чания	-765
▁высо	-766
▁горо	-767
▁день	-768
▁кэри	-769
▁номи	-770
▁пери	-771
▁роли	-772
▁стал	-773
▁ходе	-774
▁четы	-775
▁этом	-776
гранич	-777
зульта	-778
ладель	-779
лкнове	-780
смотря	-781
станов	-782
стреби	-783
читель	-784
▁войск	-785
▁двумя	-786
▁дости	-787
▁когда	-788
▁около	-789
▁приня	-790
▁прове	-791
▁пушки	-792
▁разме	-793
▁матчах	-794
▁сыграл	-795
▁челове	-796
сальвадо	-797
▁истории	-798
▁истреби	-799
▁кинокар	-800
▁которые	-801
▁которых	-802
▁национа	-803
▁подписа	-804
▁стороны	-805
▁турнира	-806
▁критиков	-807
▁несмотря	-808
▁результа	-809
▁самолёты	-810
▁конфликта	-811
▁несколько	-812
▁романтиче	-813
▁столкнове	-814
▁центрально	-815
▁гондурасских	-816
▁сальвадорской	-817
cc	-818
ia	-819
me	-820
te	-821
аг	-822
ев	-823
их	-824
нд	-825
ую	-826
чь	-827
эт	-828
▁j	-829
▁r	-830
▁u	-831
ers	-832
ion	-833
ity	-834
ras	-835
вая	-836
виа	-837
воз	-838
гро	-839
ект	-840
жды	-841
зош	-842
кса	-843
ляр	-844
ним	-845
нто	-846
пло	-847
при	-848
раз	-849
роч	-850
слу	-851
спо	-852
тур	-853
ёрн	-854
▁an	-855
▁би	-856
▁жи	-857
▁зо	-858
▁ло	-859
вало	-860
вший	-861
грал	-862
дера	-863
золо	-864
каза	-865
лаго	-866
мато	-867
нтяб	-868
рого	-869
ступ	-870
тепе	-871
траж	-872
ходя	-873
явле	-874
▁аль	-875
▁анг	-876
▁гва	-877
▁дан	-878
▁дом	-879
▁ему	-880
▁ино	-881
▁нап	-882
▁оаг	-883
▁обо	-884
▁объ	-885
▁они	-886
▁пло	-887
▁сер	-888
▁сла	-889
▁соб	-890
▁спу	-891
▁эта	-892
запад	-893
ключе	-894
ленно	-895
льные	-896
мента	-897
оскар	-898
селен	-899
ствии	-900
▁авиа	-901
▁безо	-902
▁было	-903
▁впер	-904
▁доку	-905
▁кине	-906
▁напа	-907
▁один	-908
▁оста	-909
▁пора	-910
▁пять	-911
▁ране	-912
▁таки	-913
▁хосе	-914
▁	-915
о	-916
а	-917
и	-918
е	-919
н	-920
р	-921
с	-922
т	-923
л	-924
в	-925
д	-926
к	-927
м	-928
п	-929
у	-930
г	-931
ь	-932
ы	-933
я	-934
б	-935
з	-936
й	-937
ч	-938
,	-939
х	-940
.	-941
1	-942
9	-943
ж	-944
ш	-945
ю	-946
=	-947
ц	-948
a	-949
ф	-950
0	-951
ё	-952
«	-953
»	-954
r	-955
(	-956
)	-957
e	-958
2	-959
6	-960
n	-961
-	-962
o	-963
э	-964
i	-965
s	-966
щ	-967
7	-968
4	-969
3	-970
t	-971
—	-972
l	-973
c	-974
d	-975
8	-976
:	-977
5	-978
f	-979
m	-980
u	-981
g	-982
p	-983
h	-984
y	-985
b	-986
↑	-987
v	-988
/	-989
;	-990
w	-991
ъ	-992
k	-993
z	-994
́	-995
j	-996
