<unk>	0
<s>	0
</s>	0
▁	-2.20836
е	-3.37504
и	-3.61583
а	-3.67237
▁в	-3.72321
,	-3.81751
.	-4.04009
1	-4.07295
о	-4.17925
9	-4.22625
я	-4.53473
т	-4.54099
х	-4.54187
у	-4.61367
0	-4.64063
м	-4.65675
▁с	-4.66673
▁и	-4.70003
н	-4.72886
ы	-4.73294
й	-4.78101
▁«	-4.85313
▁на	-4.90311
»	-4.98514
▁по	-4.99186
2	-4.99518
в	-5.07729
с	-5.08679
6	-5.09347
-	-5.13175
р	-5.18432
)	-5.22702
д	-5.25431
ой	-5.29159
ю	-5.35666
к	-5.39198
п	-5.3959
7	-5.39851
4	-5.41133
3	-5.42432
ь	-5.44059
з	-5.44463
—	-5.49191
▁гондураса	-5.51839
▁==	-5.54948
ом	-5.54983
б	-5.5675
ли	-5.58011
▁к	-5.64902
▁был	-5.64929
8	-5.69258
:	-5.72737
5	-5.74522
л	-5.77282
▁года	-5.80483
ов	-5.82214
ни	-5.84064
ого	-5.84841
ст	-5.86098
e	-5.86602
ая	-5.87627
ка	-5.88103
▁за	-5.91877
a	-5.91879
ся	-5.91953
г	-5.94131
ш	-5.94996
▁не	-5.97243
ра	-6.03253
▁из	-6.03478
ми	-6.03846
▁сальвадора	-6.05104
ть	-6.06618
го	-6.08661
ч	-6.09183
да	-6.09509
i	-6.15532
ен	-6.20453
▁гондурас	-6.22413
d	-6.24802
c	-6.24998
▁году	-6.25235
ла	-6.25278
ых	-6.25646
ло	-6.27136
ый	-6.2804
де	-6.28165
n	-6.29716
ар	-6.31114
▁грант	-6.31747
).	-6.33359
ем	-6.33935
y	-6.34384
▁от	-6.36193
его	-6.36194
но	-6.36512
↑	-6.37718
o	-6.38831
▁у	-6.3911
▁г	-6.39255
▁при	-6.42817
▁об	-6.42963
▁фильм	-6.4348
ую	-6.44081
▁сальвадорски	-6.44751
s	-6.45677
на	-6.45841
▁со	-6.46355
ет	-6.47784
ва	-6.51347
ль	-6.52151
▁июля	-6.5229
▁сборн	-6.52349
ей	-6.52923
ё	-6.54951
b	-6.56287
▁правительств	-6.56288
тр	-6.58171
▁он	-6.59024
▁сальвадор	-6.59977
▁до	-6.60939
ск	-6.61045
▁ре	-6.6302
ле	-6.63251
t	-6.64124
▁это	-6.64802
ер	-6.6588
ны	-6.68814
▁м	-6.69308
их	-6.70606
▁что	-6.70763
начал	-6.73856
ий	-6.7429
▁после	-6.74882
ок	-6.76648
▁о	-6.78454
та	-6.7905
▁===	-6.79109
▁так	-6.79117
▁про	-6.80793
▁дл	-6.8197
▁между	-6.84373
▁территории	-6.84455
▁стал	-6.84682
ил	-6.85742
гр	-6.88493
».	-6.9099
ки	-6.91449
мо	-6.92112
ча	-6.92733
▁f	-6.93864
m	-6.95319
g	-6.95537
/	-6.95811
▁дву	-6.96095
по	-6.96593
лись	-7.01086
▁которы	-7.01364
ar	-7.01763
▁июня	-7.02061
англ	-7.02062
▁кино	-7.02106
ие	-7.02346
ного	-7.02546
▁сальвадором	-7.02728
▁место	-7.03279
би	-7.05404
▁раз	-7.07312
▁же	-7.08727
▁самолёт	-7.08727
▁граждан	-7.08727
ф	-7.08848
ев	-7.09546
как	-7.11494
ась	-7.12326
ная	-7.14204
▁сво	-7.14864
▁карьер	-7.1587
▁сальвадорцев	-7.1587
ор	-7.15887
▁войны	-7.15893
▁чемпионат	-7.15895
или	-7.15931
▁границы	-7.16176
▁два	-7.16879
ных	-7.1863
ран	-7.18787
му	-7.18906
сь	-7.19616
▁пере	-7.21878
ди	-7.21946
ные	-7.22276
▁p	-7.23329
;	-7.23562
▁мира	-7.23677
ения	-7.24845
u	-7.25238
▁сил	-7.26318
er	-7.26709
ной	-7.28515
ал	-7.29599
американск	-7.30449
вал	-7.30745
▁тысяч	-7.31896
▁север	-7.31924
▁роль	-7.32039
ход	-7.32114
▁фильмов	-7.32677
▁вы	-7.35325
лен	-7.3591
ами	-7.36412
ись	-7.37981
▁ро	-7.38043
вс	-7.38351
ам	-7.38978
▁гранта	-7.3925
лу	-7.4
r	-7.4007
h	-7.40762
▁город	-7.40987
▁время	-7.40988
▁военны	-7.40991
▁бо	-7.41841
▁гондурасом	-7.42391
ров	-7.44577
▁одн	-7.44845
on	-7.45736
▁работ	-7.4635
▁одно	-7.47993
футбольн	-7.49189
▁те	-7.49536
car	-7.50504
▁участи	-7.5076
p	-7.50861
▁групп	-7.50987
▁центрально	-7.50987
▁район	-7.50987
▁армии	-7.50989
▁кинтаниль	-7.50996
▁странами	-7.51043
▁is	-7.51054
▁действи	-7.51108
▁годов	-7.51257
ля	-7.52242
▁сан	-7.53637
мя	-7.54277
ился	-7.55265
▁гондурасски	-7.58202
ые	-7.58313
лось	-7.59274
ение	-7.59562
фи	-7.59817
▁ст	-7.60493
▁котор	-7.60689
сти	-7.61534
эри	-7.62098
▁конкакаф	-7.62098
▁нескольк	-7.62098
▁больш	-7.62098
▁grant	-7.621
следующи	-7.621
▁th	-7.62116
▁война	-7.62147
of	-7.62227
▁сша	-7.62243
or	-7.62369
са	-7.62457
▁страны	-7.62841
▁de	-7.62879
ном	-7.63658
▁актёра	-7.64357
нд	-7.66145
вер	-7.69211
▁перв	-7.69441
▁но	-7.69694
▁год	-7.7003
▁кр	-7.70568
▁все	-7.70935
ило	-7.71096
▁конфликт	-7.71829
▁матч	-7.71867
ская	-7.71977
лся	-7.72025
ник	-7.72713
пе	-7.72867
мен	-7.73043
прав	-7.73764
▁комеди	-7.74279
▁состав	-7.74398
▁успех	-7.74598
золото	-7.74598
тельно	-7.74611
ольк	-7.74621
▁снял	-7.74673
реди	-7.74677
ённы	-7.74678
▁част	-7.74798
▁сальвадорско	-7.7481
чение	-7.74876
▁лини	-7.74908
▁футболу	-7.74949
▁без	-7.75077
ёл	-7.75417
▁годы	-7.75578
▁том	-7.75779
ания	-7.76117
▁бе	-7.76672
▁гол	-7.7676
▁картин	-7.77166
▁боле	-7.77354
▁продолжал	-7.7775
▁под	-7.78018
рин	-7.78519
▁актёр	-7.79492
аль	-7.79562
▁войска	-7.80012
ss	-7.82281
ним	-7.82555
мер	-7.83245
бор	-7.83334
ra	-7.84316
▁стран	-7.84387
un	-7.85075
против	-7.8862
k	-7.88691
▁пред	-7.88824
an	-7.88827
ющих	-7.88867
́	-7.88883
экономически	-7.88883
▁занял	-7.88888
около	-7.88894
▁памятник	-7.88898
▁военно	-7.88898
▁боевы	-7.88902
▁второ	-7.88918
театр	-7.8893
ство	-7.88967
меч	-7.89167
▁получил	-7.89181
▁участием	-7.89216
ость	-7.89423
▁пят	-7.89445
▁ден	-7.89745
▁того	-7.8984
ia	-7.90479
нимал	-7.90935
вос	-7.9149
▁начало	-7.91774
nt	-7.92555
вать	-7.92652
▁свое	-7.92691
▁стране	-7.92752
▁фильмы	-7.92934
▁актёрск	-7.93406
тек	-7.93684
f	-7.93759
▁ко	-7.93767
▁сам	-7.94512
сальвадор	-7.94668
▁гондурасск	-7.95028
it	-7.95152
▁земель	-7.95871
▁рас	-7.98079
▁войск	-7.98673
ру	-7.99618
ыми	-8.0003
при	-8.01284
ако	-8.03498
▁самы	-8.04383
играл	-8.04993
смотр	-8.05284
ации	-8.05325
z	-8.05398
▁команд	-8.05545
▁истории	-8.0555
▁критиков	-8.0555
▁пушкин	-8.0555
▁результат	-8.0555
▁столкновени	-8.0555
▁человек	-8.0555
▁национальн	-8.0555
▁период	-8.0555
▁pre	-8.05551
▁заявил	-8.05551
питан	-8.05553
▁романтическ	-8.05553
▁финальн	-8.05553
▁чере	-8.05554
▁драм	-8.05555
▁один	-8.05559
оскар	-8.05566
▁забил	-8.05569
▁спис	-8.05574
сайт	-8.05606
▁вооружённы	-8.05607
ch	-8.05951
▁стороны	-8.0599
▁прекращени	-8.06043
▁матчах	-8.06541
тера	-8.07032
▁турнира	-8.07877
ным	-8.08491
ког	-8.08551
пер	-8.09178
▁которых	-8.09269
▁конфликта	-8.09449
бли	-8.1052
▁дом	-8.10682
▁бы	-8.12619
роли	-8.1336
кон	-8.13766
работ	-8.14086
▁позици	-8.14843
вши	-8.17225
ках	-8.19161
as	-8.21109
▁мест	-8.2157
воздушн	-8.22338
▁выступ	-8.22498
▁турнир	-8.22787
▁дв	-8.23129
▁появ	-8.24161
▁границ	-8.24641
ирован	-8.25318
▁президент	-8.25458
▁исполн	-8.2555
жды	-8.2555
запад	-8.2555
▁америки	-8.2555
▁дополнительн	-8.2555
▁история	-8.2555
▁положени	-8.2555
▁режиссёр	-8.2555
▁сентябр	-8.2555
▁спустя	-8.2555
▁съём	-8.2555
▁успешн	-8.2555
▁хичкок	-8.2555
▁январ	-8.2555
▁включ	-8.2555
▁отборочн	-8.2555
▁торгов	-8.2555
▁различны	-8.25551
▁проект	-8.25551
▁радио	-8.25552
▁хосе	-8.25552
▁земли	-8.25552
▁последне	-8.25553
форм	-8.25553
часов	-8.25559
▁ответ	-8.25559
▁войне	-8.25566
ошки	-8.25595
▁сбит	-8.25597
селения	-8.25615
▁оаг	-8.25629
▁имел	-8.25705
gra	-8.25711
▁данн	-8.2575
мигрантов	-8.25794
велич	-8.25892
ers	-8.26017
▁находи	-8.26056
шёл	-8.26086
▁соглашени	-8.26212
▁котором	-8.26423
▁pa	-8.26463
▁отношения	-8.26491
ател	-8.26576
вший	-8.26594
me	-8.26712
ыграл	-8.27542
io	-8.2785
лё	-8.28049
▁кру	-8.28266
нё	-8.28321
▁воздушно	-8.28868
▁матча	-8.29008
▁американски	-8.29333
▁футбольны	-8.29609
▁други	-8.34587
рос	-8.34841
первы	-8.34867
ших	-8.35475
▁явля	-8.36025
ta	-8.37202
ью	-8.3726
земельн	-8.38789
▁друг	-8.40037
вес	-8.40447
in	-8.4088
сел	-8.44372
чны	-8.44939
es	-8.45024
▁сыгра	-8.47279
▁куб	-8.47292
▁отношени	-8.49356
тери	-8.50135
▁чемпион	-8.50427
▁четыр	-8.50548
окотепеке	-8.5055
▁акцент	-8.5055
▁безопасност	-8.5055
▁вылетевши	-8.5055
▁голливуд	-8.5055
▁девушк	-8.5055
▁договор	-8.5055
▁должн	-8.5055
▁достижени	-8.5055
▁журнал	-8.5055
▁заключ	-8.5055
▁иностранны	-8.5055
▁использова	-8.5055
▁источник	-8.5055
▁истребителя	-8.5055
▁кинокарьер	-8.5055
▁контракт	-8.5055
▁мелодрам	-8.5055
▁нападени	-8.5055
▁нуэва	-8.5055
▁октябр	-8.5055
▁оцен	-8.5055
▁пользовал	-8.5055
▁популярность	-8.5055
▁предложил	-8.5055
▁преимуществ	-8.5055
▁приграничны	-8.5055
▁пункт	-8.5055
▁рабоч	-8.5055
▁размещен	-8.5055
▁собственност	-8.5055
▁столиц	-8.5055
▁тегусигальп	-8.5055
▁трудност	-8.5055
▁участвовал	-8.5055
▁хепбёрн	-8.5055
▁цаор	-8.5055
▁этапа	-8.5055
▁эти	-8.5055
▁интерн	-8.5055
▁подписан	-8.5055
▁половин	-8.5055
▁соглас	-8.5055
▁представля	-8.5055
▁вопрос	-8.50551
▁приобр	-8.50551
▁протест	-8.50551
▁фифа	-8.50551
▁развит	-8.50551
ham	-8.50551
счёт	-8.50552
▁занят	-8.50552
▁поздн	-8.50552
лучш	-8.50552
▁верну	-8.50554
▁дней	-8.50554
▁девят	-8.50555
▁погиб	-8.50556
честв	-8.50558
▁авто	-8.50559
▁усили	-8.5056
образ	-8.50568
▁гаранти	-8.50573
▁дня	-8.50577
▁затем	-8.50584
тельны	-8.5059
ходят	-8.50592
▁and	-8.50593
▁предоставлен	-8.50603
вмест	-8.50618
сона	-8.50638
▁установлен	-8.50638
ведения	-8.50647
for	-8.50648
▁предста	-8.50661
густ	-8.50716
▁вооружённо	-8.50749
▁убит	-8.50793
пл	-8.50796
uer	-8.50833
требова	-8.50842
▁номинаци	-8.50858
стрел	-8.50869
тора	-8.50869
ok	-8.50907
исп	-8.50921
▁оста	-8.50924
▁рассмотре	-8.50974
▁таким	-8.5107
▁лиш	-8.51159
▁комедийн	-8.51233
▁обыгра	-8.51357
▁воз	-8.51372
▁основн	-8.51438
истер	-8.51885
▁расс	-8.52566
▁внес	-8.52726
ировал	-8.52921
▁произошл	-8.52957
фф	-8.53104
мать	-8.53288
чес	-8.53301
▁постановк	-8.53413
▁дел	-8.53438
▁обеи	-8.53977
▁кубк	-8.54004
▁выступил	-8.5465
▁дем	-8.5465
слав	-8.55478
▁en	-8.60942
▁мног	-8.63727
▁высоко	-8.6819
▁прове	-8.70411
пан	-8.70847
про	-8.72237
что	-8.72345
вшего	-8.73516
стро	-8.75566
▁населён	-8.76857
след	-8.77944
▁промышленн	-8.78534
кор	-8.78732
несли	-8.80255
▁футбол	-8.82558
col	-8.82859
▁сторон	-8.82932
ическ	-8.8344
ооружён	-8.83484
▁апреле	-8.83883
land	-8.83883
tbol	-8.83883
двинул	-8.83883
департамент	-8.83883
дцат	-8.83883
сторонни	-8.83883
федераци	-8.83883
▁soccer	-8.83883
▁альфред	-8.83883
▁артиллери	-8.83883
▁батальон	-8.83883
▁беженцев	-8.83883
▁бронзовы	-8.83883
▁впоследствии	-8.83883
▁гвардии	-8.83883
▁государств	-8.83883
▁дальнейш	-8.83883
▁декабр	-8.83883
▁джин	-8.83883
▁дипломатическ	-8.83883
▁жизн	-8.83883
▁задолженност	-8.83883
▁значительны	-8.83883
▁зрителей	-8.83883
▁инцидент	-8.83883
▁испытывал	-8.83883
▁кинематографе	-8.83883
▁коммерческ	-8.83883
▁конгресса	-8.83883
▁короткометражны	-8.83883
▁международн	-8.83883
▁непосредственн	-8.83883
▁объявил	-8.83883
▁организаци	-8.83883
▁открыт	-8.83883
▁переоборудован	-8.83883
▁площад	-8.83883
▁подразделени	-8.83883
▁предложени	-8.83883
▁присоединил	-8.83883
▁проблем	-8.83883
▁рейтинг	-8.83883
▁роджер	-8.83883
▁рождени	-8.83883
▁соответств	-8.83883
▁транспортны	-8.83883
▁триллер	-8.83883
▁урегулирован	-8.83883
▁участник	-8.83883
▁чрезвычайн	-8.83883
▁экономическо	-8.83883
▁мексик	-8.83883
▁месяц	-8.83883
▁позвол	-8.83883
▁поселенц	-8.83883
▁приключенческ	-8.83883
▁публико	-8.83883
▁рынка	-8.83883
▁ссылк	-8.83883
▁трупп	-8.83883
▁экономик	-8.83883
▁призёр	-8.83884
▁титул	-8.83884
▁проигры	-8.83884
▁сообщ	-8.83884
▁документальны	-8.83884
▁жертв	-8.83884
▁третий	-8.83884
альянс	-8.83884
▁создан	-8.83884
▁донена	-8.83885
stan	-8.83885
▁марте	-8.83885
▁соверш	-8.83885
▁поднял	-8.83885
▁знако	-8.83886
▁сидни	-8.83887
▁причин	-8.83888
▁официальн	-8.83888
ладель	-8.83889
▁оконча	-8.83891
▁принял	-8.83892
времен	-8.83893
▁начина	-8.83893
▁командовани	-8.83894
▁переселен	-8.83894
▁русск	-8.83895
финал	-8.83899
▁оказал	-8.83899
онсе	-8.83905
веден	-8.83907
▁мирны	-8.83907
▁принят	-8.83908
▁главн	-8.83916
▁стади	-8.83918
▁плей	-8.83929
honduras	-8.83929
берт	-8.83931
▁срок	-8.83939
операци	-8.83944
▁решени	-8.8395
▁наступление	-8.83954
▁образом	-8.83956
▁отправил	-8.83964
верси	-8.8397
▁шест	-8.83973
хват	-8.83977
▁последни	-8.83989
▁возник	-8.83991
ошла	-8.84016
▁вышл	-8.84076
скоре	-8.84089
ничь	-8.84099
екта	-8.84134
шоу	-8.84188
▁оон	-8.84198
ram	-8.84202
▁номер	-8.84205
ur	-8.84241
строен	-8.8429
гуа	-8.84377
▁геро	-8.84407
тическо	-8.84434
um	-8.84447
▁зон	-8.8446
топ	-8.84509
естр	-8.84527
▁почт	-8.84588
▁реши	-8.84591
▁план	-8.84609
▁хам	-8.84712
кур	-8.84719
копа	-8.84734
art	-8.8482
рейн	-8.85046
ряд	-8.85085
студ	-8.85136
▁проигра	-8.8517
▁лю	-8.85194
▁бомби	-8.85212
амент	-8.85682
десят	-8.85688
крас	-8.85995
▁благод	-8.86021
очн	-8.86399
▁правд	-8.86433
выход	-8.86911
икл	-8.8738
закон	-8.87643
овали	-8.87789
▁известност	-8.8826
дро	-8.88647
инг	-8.90277
актёров	-8.9054
населённы	-8.91246
разд	-8.92909
▁остр	-8.94512
елл	-8.97871
комп	-8.98681
▁провел	-8.99592
▁заявлени	-8.99905
обно	-9.00021
▁высок	-9.02471
позиция	-9.06363
ошен	-9.07242
являл	-9.12023
▁продолж	-9.19855
анта	-9.19943
картин	-9.22281
боле	-9.22383
гондурас	-9.22539
▁известн	-9.27118
еребр	-9.30154
быва	-9.30325
▁благо	-9.30489
рот	-9.31378
основ	-9.31901
бомб	-9.31981
▁получ	-9.32657
▁шпион	-9.33071
остояни	-9.33104
торым	-9.33189
▁номин	-9.33228
действ	-9.33245
циальны	-9.3339
стояние	-9.33543
▁напряж	-9.33685
ступил	-9.33792
▁установ	-9.33804
▁памят	-9.33833
j	-9.3385
▁роман	-9.33876
▁документ	-9.33883
сложн	-9.33883
▁огранич	-9.33883
▁закрепил	-9.33883
▁контрол	-9.33883
▁неоднозначн	-9.33883
▁предполага	-9.33883
acion	-9.33883
movie	-9.33883
nald	-9.33883
бергман	-9.33883
влекательн	-9.33883
защит	-9.33883
критиками	-9.33883
политически	-9.33883
ционно	-9.33883
ъ	-9.33883
▁america	-9.33883
▁conflict	-9.33883
▁database	-9.33883
▁disp	-9.33883
▁авиабаз	-9.33883
▁авиабомб	-9.33883
▁акробатическим	-9.33883
▁александр	-9.33883
▁арчибальд	-9.33883
▁бомбардировщик	-9.33883
▁британско	-9.33883
▁водевил	-9.33883
▁военнослужащи	-9.33883
▁времён	-9.33883
▁гватемал	-9.33883
▁генерал	-9.33883
▁глобус	-9.33883
▁глубин	-9.33883
▁деятельност	-9.33883
▁забастовк	-9.33883
▁звёзд	-9.33883
▁значительно	-9.33883
▁известен	-9.33883
▁изображени	-9.33883
▁имущества	-9.33883
▁интеграци	-9.33883
▁историческо	-9.33883
▁истребителей	-9.33883
▁кинематографа	-9.33883
▁киноиндустрии	-9.33883
▁констан	-9.33883
▁крестьян	-9.33883
▁критики	-9.33883
▁массово	-9.33883
▁медленно	-9.33883
▁министр	-9.33883
▁многочисленн	-9.33883
▁название	-9.33883
▁недовольство	-9.33883
▁нелегальны	-9.33883
▁обществ	-9.33883
▁отзывы	-9.33883
▁писател	-9.33883
▁поддержк	-9.33883
▁подписал	-9.33883
▁полнометражны	-9.33883
▁прекрати	-9.33883
▁преследования	-9.33883
▁пригласил	-9.33883
▁принадлежа	-9.33883
▁процесс	-9.33883
▁публики	-9.33883
▁развёрнут	-9.33883
▁решающ	-9.33883
▁сергеевич	-9.33883
▁скульптурн	-9.33883
▁служб	-9.33883
▁сотрудничеств	-9.33883
▁статус	-9.33883
▁супруг	-9.33883
▁творчески	-9.33883
▁удосто	-9.33883
▁уильям	-9.33883
▁ходулях	-9.33883
▁хоукса	-9.33883
▁шелдон	-9.33883
▁штурмовик	-9.33883
▁бауманск	-9.33883
▁возрасте	-9.33883
▁гранита	-9.33883
▁культов	-9.33883
▁мемориальн	-9.33883
▁небольш	-9.33883
▁перераспределен	-9.33883
▁пограничн	-9.33883
▁свободн	-9.33883
▁скоротечн	-9.33883
▁скульптор	-9.33883
▁счастлив	-9.33883
▁фрэнк	-9.33883
▁четвёрт	-9.33883
▁шестидневн	-9.33883
▁эрнан	-9.33883
льскохозяйственн	-9.33884
пущен	-9.33884
спектакл	-9.33884
сследовани	-9.33884
▁inter	-9.33884
▁salvador	-9.33884
▁ангел	-9.33884
▁бродве	-9.33884
▁воздух	-9.33884
▁вынужден	-9.33884
▁грузовик	-9.33884
▁дебют	-9.33884
▁единственн	-9.33884
▁масштаб	-9.33884
▁переговор	-9.33884
▁пехотн	-9.33884
▁победител	-9.33884
▁уникальн	-9.33884
sele	-9.33884
билизаци	-9.33884
кризис	-9.33884
▁информаци	-9.33884
▁объясня	-9.33884
▁подавлен	-9.33884
▁требу	-9.33884
▁угроз	-9.33884
ning	-9.33884
крылья	-9.33884
▁флаг	-9.33884
▁провальны	-9.33884
▁количеств	-9.33884
▁шуберт	-9.33884
afi	-9.33884
стюарт	-9.33884
▁меньш	-9.33884
▁отличи	-9.33884
▁класс	-9.33885
▁школ	-9.33885
▁привод	-9.33885
▁призыв	-9.33885
▁управля	-9.33885
миграции	-9.33885
▁кинолента	-9.33885
▁молод	-9.33885
тянул	-9.33885
▁гастрол	-9.33885
точк	-9.33886
хороши	-9.33886
▁поводо	-9.33886
▁критическ	-9.33886
плату	-9.33886
▁гибел	-9.33886
▁осадно	-9.33886
orte	-9.33886
▁высыл	-9.33886
ebra	-9.33886
▁достиг	-9.33886
▁испани	-9.33887
rey	-9.33888
сильви	-9.33888
▁четырёх	-9.33888
air	-9.33888
тельств	-9.33889
▁анто	-9.33889
▁плохо	-9.3389
«	-10.2359
w	-10.7759
v	-10.776
l	-10.7761
щ	-10.7762
э	-10.7763
(	-10.7764
ц	-10.7765
=	-10.7766
ж	-10.7767
