<unk>	0
<s>	0
</s>	0
ра	-0
▁с	-1
▁в	-2
▁п	-3
ль	-4
ст	-5
на	-6
ни	-7
▁и	-8
но	-9
го	-10
ва	-11
ор	-12
ко	-13
ре	-14
ли	-15
ны	-16
ро	-17
▁о	-18
ду	-19
▁по	-20
ри	-21
ме	-22
ка	-23
ле	-24
те	-25
▁Г	-26
▁д	-27
та	-28
▁на	-29
он	-30
аль	-31
ки	-32
то	-33
рас	-34
▁го	-35
ла	-36
ло	-37
▁б	-38
не	-39
ми	-40
▁С	-41
вад	-42
альвад	-43
да	-44
▁«	-45
дурас	-46
▁з	-47
че	-48
▁(	-49
ве	-50
во	-51
ондурас	-52
▁Гондурас	-53
ча	-54
▁а	-55
▁во	-56
ти	-57
==	-58
ви	-59
ма	-60
▁у	-61
▁ко	-62
де	-63
▁г	-64
альвадор	-65
▁В	-66
▁за	-67
▁==	-68
ля	-69
же	-70
ся	-71
тор	-72
бо	-73
ди	-74
ско	-75
▁про	-76
▁со	-77
▁К	-78
▁ф	-79
ски	-80
нт	-81
▁к	-82
▁ра	-83
▁Гондураса	-84
ние	-85
мо	-86
ния	-87
ных	-88
▁бы	-89
ци	-90
до	-91
ть	-92
▁—	-93
сь	-94
це	-95
ру	-96
▁т	-97
▁ме	-98
▁от	-99
▁пре	-100
▁при	-101
ня	-102
▁П	-103
се	-104
▁не	-105
тель	-106
ом	-107
пи	-108
гра	-109
иль	-110
ной	-111
ер	-112
ше	-113
▁года	-114
▁сальвадор	-115
ста	-116
▁вы	-117
сти	-118
▁из	-119
нно	-120
▁де	-121
ан	-122
кт	-123
ши	-124
▁ка	-125
▁э	-126
тра	-127
▁об	-128
лу	-129
▁Д	-130
сле	-131
▁ию	-132
▁че	-133
▁вой	-134
ты	-135
ора	-136
▁Гра	-137
по	-138
ные	-139
ный	-140
▁филь	-141
▁Сальвад	-142
▁Сальвадора	-143
би	-144
ну	-145
па	-146
пе	-147
сто	-148
▁до	-149
вы	-150
чи	-151
нта	-152
▁ре	-153
хо	-154
лся	-155
▁те	-156
са	-157
бор	-158
ная	-159
ство	-160
▁Сальвадор	-161
ще	-162
ере	-163
▁гра	-164
▁стра	-165
ска	-166
▁ро	-167
▁котор	-168
мя	-169
со	-170
▁Н	-171
▁году	-172
).	-173
ем	-174
си	-175
▁А	-176
ских	-177
ar	-178
ву	-179
щи	-180
ён	-181
▁М	-182
▁раз	-183
жи	-184
зо	-185
ут	-186
▁О	-187
ку	-188
▁Б	-189
сть	-190
▁бо	-191
▁са	-192
ного	-193
рави	-194
▁Грант	-195
),	-196
er	-197
▁Р	-198
▁↑	-199
▁ма	-200
▁ми	-201
▁ста	-202
»,	-203
она	-204
том	-205
лись	-206
утбо	-207
за	-208
зи	-209
▁е	-210
an	-211
жа	-212
ии	-213
ур	-214
ёр	-215
▁ки	-216
▁акт	-217
▁был	-218
▁июля	-219
▁ч	-220
▁се	-221
стве	-222
▁нача	-223
▁пере	-224
▁сбор	-225
равитель	-226
ря	-227
▁По	-228
▁уча	-229
мы	-230
▁C	-231
вле	-232
цев	-233
ции	-234
▁но	-235
мери	-236
ской	-237
▁были	-238
▁после	-239
▁которы	-240
ги	-241
ды	-242
ры	-243
жду	-244
ман	-245
▁та	-246
▁под	-247
▁что	-248
▁пред	-249
▁правитель	-250
ке	-251
лё	-252
му	-253
цы	-254
▁Х	-255
▁кар	-256
▁сво	-257
▁чем	-258
ского	-259
▁кино	-260
▁грани	-261
on	-262
».	-263
га	-264
▁Ф	-265
рри	-266
ющи	-267
▁ист	-268
рритор	-269
▁между	-270
▁футбо	-271
▁территор	-272
ен	-273
лю	-274
▁G	-275
вши	-276
сту	-277
▁На	-278
▁бе	-279
рова	-280
тиче	-281
▁территории	-282
КА	-283
ба	-284
ей	-285
жда	-286
нов	-287
ном	-288
▁ар	-289
▁же	-290
▁од	-291
ские	-292
▁===	-293
▁мат	-294
▁само	-295
мерика	-296
ra	-297
бе	-298
ту	-299
▁И	-300
вля	-301
нии	-302
стви	-303
▁дву	-304
▁кон	-305
ндурас	-306
▁чемпи	-307
мерикан	-308
▁правительство	-309
ой	-310
▁A	-311
▁F	-312
▁P	-313
▁Л	-314
лья	-315
ний	-316
той	-317
▁то	-318
▁для	-319
▁июня	-320
▁участи	-321
▁гондурас	-322
▁Сальвадором	-323
бы	-324
▁Э	-325
ным	-326
ран	-327
руп	-328
спе	-329
яви	-330
ёра	-331
▁он	-332
лось	-333
ская	-334
▁воз	-335
▁где	-336
▁его	-337
▁рабо	-338
▁место	-339
▁гражда	-340
▁самолё	-341
or	-342
гу	-343
нь	-344
уж	-345
ца	-346
▁S	-347
▁Т	-348
вер	-349
гла	-350
кже	-351
кта	-352
ное	-353
оро	-354
пол	-355
тся	-356
фли	-357
▁Ки	-358
лась	-359
нтра	-360
▁вре	-361
▁как	-362
▁рас	-363
▁войны	-364
▁конфли	-365
▁границы	-366
▁сальвадорцев	-367
al	-368
ар	-369
гл	-370
ил	-371
пу	-372
ск	-373
дне	-374
дов	-375
дол	-376
мов	-377
оне	-378
ори	-379
сте	-380
▁ис	-381
▁ни	-382
▁хо	-383
англ	-384
коно	-385
лько	-386
оруж	-387
ства	-388
▁кри	-389
▁это	-390
жение	-391
льной	-392
ность	-393
▁арми	-394
▁карь	-395
▁мира	-396
▁прои	-397
▁успе	-398
кономи	-399
▁актёр	-400
▁сборной	-401
▁чемпиона	-402
ОН	-403
зы	-404
фи	-405
ёл	-406
▁D	-407
▁I	-408
▁T	-409
▁Ц	-410
▁м	-411
▁я	-412
бли	-413
вет	-414
еме	-415
клю	-416
лен	-417
нию	-418
ную	-419
раз	-420
ров	-421
тов	-422
тре	-423
шки	-424
ыся	-425
▁Го	-426
▁Ро	-427
▁ча	-428
меди	-429
ника	-430
ский	-431
ыгра	-432
▁два	-433
▁сто	-434
▁тур	-435
▁заня	-436
▁тыся	-437
▁Гранта	-438
▁комеди	-439
▁страна	-440
▁фильмов	-441
▁экономи	-442
▁сальвадорских	-443
nt	-444
ая	-445
вя	-446
нг	-447
пы	-448
вые	-449
ков	-450
кой	-451
про	-452
род	-453
▁га	-454
▁ли	-455
▁пу	-456
дова	-457
▁сил	-458
▁тре	-459
йстви	-460
нного	-461
нтани	-462
шения	-463
▁поло	-464
▁полу	-465
▁время	-466
▁матча	-467
▁соста	-468
▁турни	-469
▁тысяч	-470
▁вооруж	-471
▁Кинтани	-472
▁граждан	-473
▁Гондурасом	-474
de	-475
es	-476
ic	-477
ВС	-478
ес	-479
зу	-480
об	-481
су	-482
эн	-483
ary	-484
амя	-485
вой	-486
душ	-487
ина	-488
кра	-489
лей	-490
нич	-491
пор	-492
пре	-493
ция	-494
▁ин	-495
▁пе	-496
нима	-497
ными	-498
ющих	-499
▁ВВС	-500
▁Сан	-501
▁рай	-502
▁сня	-503
ления	-504
льный	-505
полни	-506
▁груп	-507
▁отно	-508
▁роль	-509
▁армии	-510
▁годов	-511
▁крити	-512
▁также	-513
▁продол	-514
▁действи	-515
▁странами	-516
BN	-517
of	-518
ША	-519
ат	-520
яб	-521
▁E	-522
▁M	-523
▁W	-524
▁p	-525
.).	-526
SBN	-527
ant	-528
КАФ	-529
вал	-530
жде	-531
лее	-532
ник	-533
оло	-534
стя	-535
тив	-536
эри	-537
▁Gr	-538
▁Ме	-539
ОНКА	-540
дент	-541
зова	-542
нако	-543
торо	-544
▁США	-545
▁вое	-546
▁зем	-547
▁име	-548
▁поз	-549
▁три	-550
▁Cary	-551
▁ISBN	-552
▁воен	-553
▁двух	-554
▁Grant	-555
▁КОНКА	-556
▁война	-557
▁высту	-558
▁неско	-559
▁согла	-560
▁стала	-561
▁сыгра	-562
▁актёра	-563
▁прекра	-564
▁страны	-565
▁фильма	-566
▁КОНКАКАФ	-567
▁продолжа	-568
▁экономиче	-569
▁Кинтанилья	-570
мериканского	-571
am	-572
el	-573
he	-574
il	-575
ni	-576
ol	-577
ья	-578
▁H	-579
▁З	-580
▁У	-581
▁Ч	-582
▁Ш	-583
▁ш	-584
зва	-585
лет	-586
ней	-587
пер	-588
рез	-589
рин	-590
рио	-591
сел	-592
▁de	-593
▁of	-594
▁Хо	-595
▁Це	-596
▁их	-597
▁ку	-598
▁мо	-599
▁це	-600
амят	-601
вого	-602
леду	-603
нием	-604
стоя	-605
стре	-606
теля	-607
щего	-608
▁При	-609
▁бое	-610
▁все	-611
▁око	-612
▁пер	-613
▁том	-614
жения	-615
льных	-616
ности	-617
чение	-618
ённых	-619
▁была	-620
▁земе	-621
▁севе	-622
▁фина	-623
льзова	-624
▁После	-625
▁коман	-626
▁роман	-627
▁своей	-628
▁успех	-629
ственно	-630
▁Центра	-631
▁военно	-632
▁войска	-633
▁получи	-634
▁районе	-635
▁который	-636
▁предста	-637
▁футболу	-638
▁чемпионата	-639
//	-640
it	-641
ит	-642
лы	-643
ша	-644
ём	-645
▁B	-646
▁N	-647
▁R	-648
and	-649
вор	-650
вше	-651
вый	-652
гда	-653
дин	-654
дра	-655
зна	-656
кар	-657
ком	-658
кую	-659
лич	-660
лле	-661
лли	-662
мер	-663
нес	-664
руд	-665
хва	-666
ход	-667
▁//	-668
▁До	-669
▁Ли	-670
▁Пу	-671
▁ав	-672
▁ак	-673
▁ве	-674
вали	-675
веде	-676
вест	-677
вших	-678
дель	-679
лове	-680
льно	-681
нове	-682
реди	-683
сили	-684
ское	-685
ском	-686
стро	-687
ходи	-688
ющие	-689
▁бом	-690
▁вер	-691
▁год	-692
▁дру	-693
▁ком	-694
ствен	-695
циаль	-696
ённые	-697
▁боль	-698
▁годы	-699
▁заби	-700
▁пози	-701
▁самы	-702
▁того	-703
лирова	-704
ностью	-705
▁Пушки	-706
▁заяви	-707
▁карти	-708
▁линии	-709
▁прези	-710
▁извест	-711
▁предло	-712
▁снялся	-713
▁стране	-714
▁фильме	-715
▁течение	-716
▁действия	-717
▁конфликт	-718
▁прекраще	-719
▁участием	-720
▁Гондурасе	-721
▁сальвадорские	-722
.)	-723
ad	-724
ев	-725
зе	-726
им	-727
лк	-728
сс	-729
сы	-730
тя	-731
ую	-732
хи	-733
ess	-734
ана	-735
вар	-736
вых	-737
гие	-738
дер	-739
дио	-740
еры	-741
йти	-742
ках	-743
лях	-744
мию	-745
мот	-746
ним	-747
пад	-748
при	-749
ред	-750
рии	-751
ром	-752
тер	-753
фор	-754
ций	-755
цию	-756
чай	-757
чко	-758
ших	-759
щая	-760
▁Pr	-761
▁Ре	-762
▁Та	-763
▁ге	-764
▁км	-765
▁ос	-766
▁су	-767
▁съ	-768
биты	-769
вать	-770
вшие	-771
галь	-772
днее	-773
ется	-774
зуль	-775
лице	-776
мент	-777
муще	-778
нтов	-779
ории	-780
ория	-781
писа	-782
пита	-783
реби	-784
скар	-785
тера	-786
тора	-787
ться	-788
▁Нес	-789
▁без	-790
▁дол	-791
▁дра	-792
▁лет	-793
▁обе	-794
▁пра	-795
▁спи	-796
Футбо	-797
доста	-798
ление	-799
льная	-800
льноа	-801
мотря	-802
стано	-803
стран	-804
телей	-805
циона	-806
чания	-807
▁Кэри	-808
▁высо	-809
▁горо	-810
▁день	-811
▁номи	-812
▁расс	-813
▁режи	-814
▁роли	-815
▁стал	-816
▁ходе	-817
▁четы	-818
▁этом	-819
▁этот	-820
гранич	-821
зульта	-822
ладель	-823
лкнове	-824
станов	-825
тороны	-826
читель	-827
▁более	-828
▁войск	-829
▁двумя	-830
▁когда	-831
▁перио	-832
▁приня	-833
▁прове	-834
▁разме	-835
▁следу	-836
▁фильм	-837
▁матчах	-838
▁сыграл	-839
▁фильмы	-840
▁челове	-841
▁истории	-842
▁истреби	-843
▁которые	-844
▁которых	-845
▁сборная	-846
▁стороны	-847
▁турнира	-848
▁Несмотря	-849
▁критиков	-850
▁самолёты	-851
▁конфликта	-852
▁несколько	-853
▁романтиче	-854
▁столкнове	-855
▁гондурасских	-856
▁сальвадорской	-857
as	-858
ci	-859
ia	-860
me	-861
АГ	-862
бу	-863
ге	-864
ис	-865
их	-866
ос	-867
оч	-868
уэ	-869
чь	-870
ща	-871
ье	-872
эт	-873
ят	-874
▁J	-875
▁U	-876
▁ю	-877
ers	-878
ity	-879
ras	-880
бер	-881
вая	-882
воз	-883
дже	-884
дии	-885
ект	-886
ему	-887
жды	-888
зош	-889
кры	-890
ляр	-891
мыш	-892
нва	-893
пло	-894
пра	-895
рес	-896
рта	-897
слу	-898
тур	-899
чен	-900
ять	-901
ёрн	-902
▁Би	-903
▁Бо	-904
▁Ст	-905
▁Те	-906
▁Хи	-907
▁ба	-908
▁да	-909
▁жи	-910
Золо	-911
вало	-912
вший	-913
грал	-914
граф	-915
дера	-916
каза	-917
лаго	-918
мато	-919
нтяб	-920
порт	-921
рабо	-922
сточ	-923
ступ	-924
тепе	-925
траж	-926
явле	-927
▁Аль	-928
▁Кон	-929
▁ОАГ	-930
▁ави	-931
▁дом	-932
▁ему	-933
▁зна	-934
▁кро	-935
▁объ	-936
▁они	-937
▁пло	-938
▁сла	-939
▁соб	-940
▁спу	-941
▁теа	-942
▁тор	-943
▁эта	-944
Оскар	-945
бороч	-946
запад	-947
ленно	-948
мента	-949
рован	-950
селен	-951
ствии	-952
▁Филь	-953
▁Хосе	-954
▁безо	-955
▁было	-956
▁вклю	-957
▁впер	-958
▁втор	-959
▁кине	-960
▁напа	-961
▁один	-962
▁побе	-963
▁пять	-964
▁ране	-965
▁явля	-966
▁янва	-967
воздуш	-968
мерики	-969
метраж	-970
честве	-971
явился	-972
▁Press	-973
▁Приме	-974
▁Хичко	-975
▁благо	-976
▁войне	-977
▁город	-978
▁дости	-979
▁забил	-980
▁земли	-981
▁карье	-982
▁мигра	-983
▁назва	-984
▁образ	-985
▁около	-986
▁ответ	-987
▁публи	-988
▁разви	-989
▁самых	-990
▁торго	-991
▁успеш	-992
▁через	-993
амятник	-994
▁воздуш	-995
▁земель	-996
▁находи	-997
▁начала	-998
▁период	-999
▁премию	-1000
▁проект	-1001
▁промыш	-1002
▁различ	-1003
▁режисс	-1004
▁сентяб	-1005
▁спустя	-1006
▁только	-1007
▁устано	-1008
матограф	-1009
▁Америки	-1010
▁Национа	-1011
▁границе	-1012
▁кинокар	-1013
▁котором	-1014
▁отбороч	-1015
▁подписа	-1016
▁произош	-1017
▁участво	-1018
воздушных	-1019
полнитель	-1020
▁американ	-1021
▁предоста	-1022
Футбольная	-1023
▁отношения	-1024
▁президент	-1025
▁Примечания	-1026
▁Центральноа	-1027
▁кинематограф	-1028
▁сальвадорский	-1029
du	-1030
in	-1031
io	-1032
la	-1033
ok	-1034
te	-1035
АО	-1036
ИФ	-1037
То	-1038
ак	-1039
ам	-1040
еп	-1041
ет	-1042
зя	-1043
ин	-1044
йт	-1045
кс	-1046
от	-1047
рё	-1048
тв	-1049
ху	-1050
чё	-1051
ый	-1052
▁:	-1053
▁L	-1054
▁O	-1055
▁t	-1056
▁ж	-1057
for	-1058
ham	-1059
niv	-1060
uer	-1061
АОР	-1062
Вос	-1063
ИФА	-1064
Пой	-1065
атр	-1066
бке	-1067
бле	-1068
бом	-1069
вое	-1070
вом	-1071
вуш	-1072
гро	-1073
гры	-1074
еди	-1075
епб	-1076
жен	-1077
жил	-1078
зда	-1079
исп	-1080
ких	-1081
лки	-1082
лом	-1083
льп	-1084
нет	-1085
нка	-1086
пан	-1087
пас	-1088
пря	-1089
рёх	-1090
сов	-1091
сок	-1092
стр	-1093
тей	-1094
тем	-1095
тии	-1096
тий	-1097
тин	-1098
чая	-1099
шая	-1100
шил	-1101
шую	-1102
шёл	-1103
▁Дж	-1104
▁Ин	-1105
▁Ку	-1106
▁Од	-1107
▁Он	-1108
▁Со	-1109
▁ди	-1110
▁им	-1111
▁ог	-1112
▁пи	-1113
▁ск	-1114
▁ше	-1115
▁ши	-1116
ondu	-1117
били	-1118
бора	-1119
вину	-1120
грес	-1121
гуси	-1122
дней	-1123
зыва	-1124
ктяб	-1125
лете	-1126
нера	-1127
ники	-1128
нили	-1129
нное	-1130
онов	-1131
пило	-1132
пион	-1133
прос	-1134
скую	-1135
след	-1136
сона	-1137
ству	-1138
тери	-1139
тест	-1140
урна	-1141
уэва	-1142
энли	-1143
ющая	-1144
▁The	-1145
▁War	-1146
▁the	-1147
▁Але	-1148
▁Джи	-1149
▁Эль	-1150
▁анг	-1151
▁гру	-1152
▁дня	-1153
▁или	-1154
▁ино	-1155
▁мас	-1156
▁них	-1157
▁оце	-1158
▁пар	-1159
▁пла	-1160
▁пун	-1161
▁слу	-1162
вшего	-1163
говор	-1164
зации	-1165
имуще	-1166
кульп	-1167
лливу	-1168
лодра	-1169
месте	-1170
мотре	-1171
нимал	-1172
прави	-1173
пуляр	-1174
селён	-1175
скими	-1176
товой	-1177
шение	-1178
шений	-1179
▁Univ	-1180
▁ФИФА	-1181
▁Хепб	-1182
▁ЦАОР	-1183
▁авиа	-1184
▁акце	-1185
▁всех	-1186
▁газе	-1187
▁девя	-1188
▁дней	-1189
▁долж	-1190
▁испо	-1191
▁насе	-1192
▁одно	-1193
▁оста	-1194
▁поги	-1195
▁пока	-1196
▁пора	-1197
▁свою	-1198
▁сосе	-1199
▁труд	-1200
▁широ	-1201
ersity	-1202
котепе	-1203
льного	-1204
матиче	-1205
полнил	-1206
телями	-1207
▁Нуэва	-1208
▁Также	-1209
▁верну	-1210
▁гаран	-1211
▁девуш	-1212
▁журна	-1213
▁заклю	-1214
▁затем	-1215
▁играл	-1216
▁матче	-1217
▁октяб	-1218
▁основ	-1219
▁откры	-1220
▁переб	-1221
▁приоб	-1222
▁радио	-1223
▁среди	-1224
▁усили	-1225
▁часть	-1226
▁этапа	-1227
Воспита	-1228
ведения	-1229
дования	-1230
▁Стэнли	-1231
▁Тегуси	-1232
▁боевые	-1233
▁вопрос	-1234
▁вылете	-1235
▁группе	-1236
▁контра	-1237
▁которо	-1238
▁крошки	-1239
▁нападе	-1240
▁начали	-1241
▁номина	-1242
▁однако	-1243
▁против	-1244
▁работы	-1245
▁северо	-1246
▁северу	-1247
▁список	-1248
котепеке	-1249
▁Голливу	-1250
▁Пушкина	-1251
▁Хепбёрн	-1252
▁безопас	-1253
▁включая	-1254
▁вооружё	-1255
▁впервые	-1256
▁выступа	-1257
▁картине	-1258
▁карьере	-1259
▁карьеры	-1260
▁комедии	-1261
▁комедий	-1262
▁комедия	-1263
▁мелодра	-1264
▁популяр	-1265
▁протест	-1266
▁размеще	-1267
▁самолёт	-1268
▁участие	-1269
▁фильмах	-1270
▁человек	-1271
▁Памятник	-1272
▁иностран	-1273
▁исполнил	-1274
▁качестве	-1275
▁пользова	-1276
▁появился	-1277
▁преимуще	-1278
▁результа	-1279
▁сентябре	-1280
Воспитание	-1281
▁значитель	-1282
▁отношений	-1283
▁пригранич	-1284
▁рассмотре	-1285
▁режиссёра	-1286
▁установле	-1287
▁University	-1288
▁Тегусигаль	-1289
▁использова	-1290
▁представля	-1291
▁собственно	-1292
▁футбольных	-1293
▁дополнитель	-1294
▁предоставле	-1295
▁американских	-1296
▁гондурасской	-1297
AS	-1298
at	-1299
cc	-1300
eb	-1301
ed	-1302
en	-1303
ey	-1304
ig	-1305
is	-1306
mb	-1307
ng	-1308
og	-1309
os	-1310
tb	-1311
ur	-1312
ve	-1313
vi	-1314
Ми	-1315
По	-1316
Ро	-1317
Фи	-1318
бю	-1319
ел	-1320
зд	-1321
ид	-1322
оу	-1323
фф	-1324
чу	-1325
шь	-1326
щё	-1327
ью	-1328
ют	-1329
ян	-1330
▁Е	-1331
▁Ю	-1332
ali	-1333
ard	-1334
art	-1335
ict	-1336
ilm	-1337
occ	-1338
oks	-1339
tan	-1340
Дур	-1341
ада	-1342
анн	-1343
бар	-1344
бит	-1345
бой	-1346
бок	-1347
вод	-1348
вяз	-1349
вёл	-1350
гуа	-1351
дар	-1352
доз	-1353
дом	-1354
дут	-1355
дши	-1356
зик	-1357
каб	-1358
ким	-1359
кон	-1360
кре	-1361
кса	-1362
кси	-1363
лав	-1364
лан	-1365
лев	-1366
лин	-1367
лой	-1368
лон	-1369
луч	-1370
мом	-1371
мон	-1372
над	-1373
нан	-1374
нзо	-1375
оре	-1376
оте	-1377
пос	-1378
рёл	-1379
сад	-1380
соб	-1381
ссе	-1382
сси	-1383
ств	-1384
тко	-1385
тро	-1386
тые	-1387
фий	-1388
шей	-1389
шем	-1390
шла	-1391
шли	-1392
шой	-1393
щих	-1394
ёмо	-1395
▁Bo	-1396
▁En	-1397
▁No	-1398
▁la	-1399
▁Ай	-1400
▁Ан	-1401
▁Во	-1402
▁Да	-1403
▁За	-1404
▁Ко	-1405
▁Ле	-1406
▁Ра	-1407
▁Се	-1408
▁Эр	-1409
▁бу	-1410
▁гу	-1411
▁мю	-1412
▁мя	-1413
▁ру	-1414
▁ры	-1415
▁чи	-1416
ford	-1417
nter	-1418
tbol	-1419
Алья	-1420
Мист	-1421
берт	-1422
бору	-1423
вили	-1424
выми	-1425
гани	-1426
деле	-1427
дией	-1428
дний	-1429
дных	-1430
емый	-1431
естр	-1432
земе	-1433
идни	-1434
лети	-1435
логи	-1436
мера	-1437
нача	-1438
несе	-1439
ниче	-1440
нная	-1441
онни	-1442
пера	-1443
пыты	-1444
ранс	-1445
рать	-1446
регу	-1447
сайт	-1448
ским	-1449
стор	-1450
таль	-1451
тиво	-1452
тной	-1453
цами	-1454
цион	-1455
част	-1456
чены	-1457
ющий	-1458
ёров	-1459
▁Gra	-1460
▁and	-1461
▁Кар	-1462
▁Кэт	-1463
▁Мар	-1464
▁ООН	-1465
▁Рей	-1466
▁Ссы	-1467
▁Хам	-1468
▁Чем	-1469
▁ата	-1470
▁бою	-1471
▁гол	-1472
▁дан	-1473
▁жер	-1474
▁жиз	-1475
▁зри	-1476
▁кру	-1477
▁мно	-1478
▁над	-1479
▁нео	-1480
▁обо	-1481
▁ост	-1482
▁пол	-1483
▁сер	-1484
▁сро	-1485
▁счё	-1486
▁уве	-1487
▁уда	-1488
▁удо	-1489
▁уже	-1490
occer	-1491
uerra	-1492
Альян	-1493
барди	-1494
битых	-1495
вычай	-1496
вязан	-1497
двину	-1498
джера	-1499
дозре	-1500
долже	-1501
едера	-1502
едини	-1503
зикле	-1504
крепи	-1505
ктора	-1506
личай	-1507
льких	-1508
льные	-1509
мерче	-1510
мигра	-1511
народ	-1512
несли	-1513
обору	-1514
онена	-1515
ответ	-1516
отеки	-1517
парта	-1518
пособ	-1519
преле	-1520
ронзо	-1521
судар	-1522
тилле	-1523
ходят	-1524
ченче	-1525
▁Film	-1526
▁Альф	-1527
▁Данн	-1528
▁Джин	-1529
▁Золо	-1530
▁Кино	-1531
▁Нача	-1532
▁быть	-1533
▁вора	-1534
▁гвар	-1535
▁глав	-1536
▁гола	-1537
▁доку	-1538
▁инте	-1539
▁конт	-1540
▁куль	-1541
▁меся	-1542
▁него	-1543
▁обра	-1544
▁обще	-1545
▁огра	-1546
▁окон	-1547
▁плей	-1548
▁попы	-1549
▁прав	-1550
▁приз	-1551
▁сбит	-1552
▁силы	-1553
▁сооб	-1554
▁стор	-1555
▁стре	-1556
▁труп	-1557
▁угро	-1558
▁чрез	-1559
▁этой	-1560
Дурная	-1561
Мистер	-1562
альней	-1563
ведены	-1564
влялся	-1565
гресса	-1566
ждению	-1567
женцев	-1568
литиче	-1569
нность	-1570
оротко	-1571
послед	-1572
посред	-1573
правля	-1574
стория	-1575
тельно	-1576
тернет	-1577
тирова	-1578
цидент	-1579
▁Books	-1580
▁Hondu	-1581
▁Айрин	-1582
▁Библи	-1583
▁Мекси	-1584
▁Север	-1585
▁Сидни	-1586
▁Фильм	-1587
▁встре	-1588
▁второ	-1589
▁выйти	-1590
▁годах	-1591
▁грузо	-1592
▁декаб	-1593
▁депор	-1594
▁драма	-1595
▁завер	-1596
▁занял	-1597
▁знако	-1598
▁имели	-1599
▁конце	-1600
▁много	-1601
▁насел	-1602
▁начал	-1603
▁обеих	-1604
▁одной	-1605
▁оказа	-1606
▁памят	-1607
▁площа	-1608
▁побед	-1609
▁погиб	-1610
▁подня	-1611
▁позво	-1612
▁потре	-1613
▁присо	-1614
▁причи	-1615
▁прожи	-1616
▁произ	-1617
▁прока	-1618
▁рейти	-1619
▁рефор	-1620
▁рынка	-1621
▁своём	-1622
▁слава	-1623
▁совер	-1624
▁созда	-1625
▁стали	-1626
▁стран	-1627
▁съёмо	-1628
▁транс	-1629
▁улице	-1630
▁урегу	-1631
▁участ	-1632
▁часов	-1633
▁шести	-1634
▁этого	-1635
Золотой	-1636
населён	-1637
нирован	-1638
стояние	-1639
фийская	-1640
фициаль	-1641
▁Guerra	-1642
▁Soccer	-1643
▁Донена	-1644
▁Кэтрин	-1645
▁апреле	-1646
▁баталь	-1647
▁боевых	-1648
▁вместе	-1649
▁второй	-1650
▁входят	-1651
▁газеты	-1652
▁города	-1653
▁группы	-1654
▁дважды	-1655
▁девять	-1656
▁должны	-1657
▁заняла	-1658
▁застре	-1659
▁заявил	-1660
▁заявле	-1661
▁землев	-1662
▁испыты	-1663
▁истори	-1664
▁многие	-1665
▁начало	-1666
▁общего	-1667
▁объяви	-1668
▁обыгра	-1669
▁одного	-1670
▁подраз	-1671
▁полови	-1672
▁привёл	-1673
▁пригла	-1674
▁приклю	-1675
▁пробле	-1676
▁работа	-1677
▁рабочи	-1678
▁реестр	-1679
▁скульп	-1680
▁театра	-1681
▁третий	-1682
▁трилле	-1683
▁убитых	-1684
▁финаль	-1685
▁четыре	-1686
▁января	-1687
Филадель	-1688
бардиров	-1689
личайших	-1690
сточники	-1691
тельного	-1692
▁артилле	-1693
▁военные	-1694
▁военных	-1695
▁гвардии	-1696
▁девушка	-1697
▁задолже	-1698
▁заявило	-1699
▁история	-1700
▁карьера	-1701
▁команды	-1702
▁которой	-1703
▁мюзикле	-1704
▁образом	-1705
▁октября	-1706
▁отправи	-1707
▁позиции	-1708
▁получил	-1709
▁поселен	-1710
▁предпри	-1711
▁проигра	-1712
▁противо	-1713
▁работой	-1714
▁согласи	-1715
▁соответ	-1716
▁столице	-1717
▁участия	-1718
Сальвадор	-1719
оборудова	-1720
пломатиче	-1721
сальвадор	-1722
ственного	-1723
ступление	-1724
▁Интернет	-1725
▁беженцев	-1726
▁гарантии	-1727
▁действий	-1728
▁зрителей	-1729
▁коммерче	-1730
▁которого	-1731
▁постанов	-1732
▁предстал	-1733
▁самолёта	-1734
▁успешных	-1735
следования	-1736
▁Гондурасу	-1737
▁Конгресса	-1738
▁Правитель	-1739
▁воздушном	-1740
▁конфликту	-1741
▁мигрантов	-1742
▁находится	-1743
▁положение	-1744
▁последнее	-1745
▁продолжал	-1746
▁произошло	-1747
▁различных	-1748
▁размещены	-1749
▁составили	-1750
▁транспорт	-1751
▁трудности	-1752
▁чрезвычай	-1753
последствии	-1754
▁Библиотеки	-1755
▁величайших	-1756
▁комедийных	-1757
▁нескольких	-1758
▁присоедини	-1759
▁результате	-1760
▁соглашения	-1761
ороткометраж	-1762
▁Центральной	-1763
▁бомбардиров	-1764
▁вооружённых	-1765
▁иностранных	-1766
▁отборочного	-1767
▁прекращение	-1768
▁приключенче	-1769
▁промышленно	-1770
▁урегулирова	-1771
▁Национальный	-1772
▁гондурасские	-1773
▁землевладель	-1774
▁продолжались	-1775
▁столкновение	-1776
▁столкновения	-1777
▁Правительство	-1778
▁американского	-1779
▁кинематографе	-1780
▁переоборудова	-1781
▁популярностью	-1782
▁собственности	-1783
▁экономические	-1784
Филадельфийская	-1785
):	-1786
);	-1787
AF	-1788
Gu	-1789
ab	-1790
av	-1791
ch	-1792
cl	-1793
ee	-1794
et	-1795
eñ	-1796
fl	-1797
hy	-1798
ir	-1799
La	-1800
cy	-1801
ho	-1802
ld	-1803
na	-1804
op	-1805
ou	-1806
pu	-1807
sa	-1808
sz	-1809
ti	-1810
wa	-1811
ye	-1812
ón	-1813
Ат	-1814
Бу	-1815
Ко	-1816
Му	-1817
Мы	-1818
Не	-1819
Ни	-1820
Он	-1821
ау	-1822
вё	-1823
ед	-1824
ир	-1825
ию	-1826
йс	-1827
лн	-1828
мм	-1829
нс	-1830
рю	-1831
ха	-1832
шо	-1833
шё	-1834
яд	-1835
ям	-1836
яс	-1837
▁%	-1838
▁V	-1839
▁c	-1840
▁f	-1841
▁Я	-1842
ade	-1843
ald	-1844
alv	-1845
arc	-1846
arl	-1847
ase	-1848
col	-1849
erm	-1850
▁	-1851
о	-1852
а	-1853
и	-1854
е	-1855
н	-1856
р	-1857
с	-1858
т	-1859
л	-1860
в	-1861
д	-1862
к	-1863
м	-1864
п	-1865
у	-1866
ь	-1867
ы	-1868
г	-1869
я	-1870
б	-1871
з	-1872
й	-1873
ч	-1874
,	-1875
.	-1876
х	-1877
1	-1878
9	-1879
ж	-1880
ш	-1881
=	-1882
ю	-1883
Г	-1884
ц	-1885
0	-1886
С	-1887
ё	-1888
a	-1889
«	-1890
»	-1891
ф	-1892
(	-1893
)	-1894
r	-1895
2	-1896
e	-1897
В	-1898
6	-1899
К	-1900
-	-1901
o	-1902
n	-1903
щ	-1904
э	-1905
А	-1906
7	-1907
4	-1908
3	-1909
i	-1910
П	-1911
—	-1912
l	-1913
t	-1914
О	-1915
8	-1916
:	-1917
s	-1918
5	-1919
Д	-1920
Н	-1921
Ф	-1922
d	-1923
М	-1924
c	-1925
Р	-1926
Б	-1927
y	-1928
C	-1929
↑	-1930
S	-1931
u	-1932
A	-1933
m	-1934
h	-1935
И	-1936
Х	-1937
G	-1938
Т	-1939
F	-1940
Ш	-1941
f	-1942
p	-1943
Л	-1944
N	-1945
Э	-1946
/	-1947
D	-1948
P	-1949
B	-1950
I	-1951
b	-1952
v	-1953
T	-1954
g	-1955
;	-1956
З	-1957
У	-1958
Ц	-1959
ъ	-1960
E	-1961
M	-1962
W	-1963
H	-1964
U	-1965
k	-1966
Ч	-1967
z	-1968
R	-1969
L	-1970
J	-1971
O	-1972
́	-1973
Е	-1974
V	-1975
Ю	-1976
%	-1977
K	-1978
X	-1979
w	-1980
é	-1981
ñ	-1982
ó	-1983
ú	-1984
Я	-1985
Q	-1986
Y	-1987
j	-1988
x	-1989
á	-1990
í	-1991
ń	-1992
ś	-1993
Ж	-1994
“	-1995
„	-1996
